[PAD]
[UNK]
[CLS]
[SEP]
[MASK]
!
"
#
$
%
&
'
(
)
*
+
,
-
.
/
0
1
2
3
4
5
6
7
8
9
:
;
<
=
>
?
@
A
B
C
D
E
F
G
H
I
J
K
L
M
N
O
P
Q
R
S
T
U
V
W
X
Y
Z
[
\
]
^
_
`
a
b
c
d
e
f
g
h
i
j
k
l
m
n
o
p
q
r
s
t
u
v
w
x
y
z
{
|
}
~
¡
£
¤
¥
§
¨
©
«
¬
®
°
±
²
³
´
µ
¶
·
¸
¹
º
»
¼
½
¾
Á
Â
Ã
Ä
Å
Ç
È
É
Ë
Î
Ñ
Ó
Ö
×
Ø
Ü
ß
à
á
â
ã
ä
å
æ
ç
è
é
ê
ë
ì
í
î
ï
ð
ñ
ò
ó
ô
õ
ö
÷
ø
ù
ú
û
ü
ý
ā
ă
Ą
ą
Ć
ć
Č
č
Đ
đ
ē
ė
Ę
ę
ě
ğ
ī
Ĭ
İ
ı
Ĳ
ĳ
Ĺ
ľ
Ł
ł
ń
ň
ō
ő
Œ
œ
ř
Ś
ś
ş
Š
š
ţ
Ť
ť
ū
ů
ű
ų
Ź
ź
Ż
ż
Ž
ž
ſ
Ƭ
ƴ
Ʒ
ƻ
ƽ
Ǯ
ș
ȫ
ə
ɫ
ɱ
ʫ
ʮ
ʰ
ʲ
ʷ
ʽ
ʿ
ˇ
˝
˫
ˮ
˼
́
̌
̑
̨
̳
̶
ͨ
ͷ
ͼ
Α
Δ
Ε
Π
Σ
Ω
ά
έ
ή
ί
α
β
γ
δ
ε
η
θ
ι
κ
λ
μ
ν
ο
π
ρ
ς
σ
τ
υ
φ
χ
ω
ό
ύ
ϲ
ϴ
А
Б
В
Г
Д
Е
З
И
К
Л
М
Н
О
П
Р
С
Т
У
Ф
Х
Ц
Ч
Ш
Э
Я
а
б
в
г
д
е
ж
з
и
й
к
л
м
н
о
п
р
с
т
у
ф
х
ц
ч
ш
щ
ъ
ы
ь
э
ю
я
ё
і
ї
ў
ҹ
һ
Ӯ
Ԥ
վ
֮
ֱ
ֳ
ַ
ָ
ֻ
א
ב
ד
ה
ו
ח
י
ל
ם
מ
נ
ע
פ
ר
ש
ת
׼
،
آ
أ
إ
ا
ب
ة
ت
ج
ح
خ
د
ذ
ر
ز
س
ش
ص
ض
ط
ع
غ
ف
ق
ك
ل
م
ن
ه
و
ى
ي
َ
پ
ک
گ
ڲ
ی
ܹ
ܼ
޴
ं
क
त
न
म
य
र
ल
व
स
ह
ा
ि
ी
े
ो
्
க
த
ன
ம
ர
ா
ி
ு
்
്
ก
ง
ณ
ท
น
บ
พ
ม
ย
ร
ล
ว
ส
อ
ั
า
ี
ุ
เ
่
้
ṭ
‐
‑
‒
–
—
―
‘
’
‚
“
”
„
†
•
…
′
″
‹
›
€
™
←
↑
→
↩
−
≤
≥
■
►
◄
●
★
☺
♥
✓
❤
➤
、
。
「
」
あ
い
う
え
お
か
が
き
く
け
こ
さ
し
す
そ
た
だ
っ
つ
て
で
と
ど
な
に
の
は
ま
め
も
や
よ
ら
り
る
れ
を
ん
ア
ィ
イ
ウ
ェ
エ
オ
カ
キ
ク
グ
コ
サ
シ
ジ
ス
タ
チ
ッ
ツ
テ
デ
ト
ド
バ
パ
フ
ブ
プ
マ
ム
メ
ャ
ュ
ラ
リ
ル
レ
ロ
ン
・
ー
一
七
万
三
上
下
不
与
世
业
东
两
个
中
为
主
么
之
乐
九
书
买
了
争
事
二
五
交
京
人
什
今
他
仙
代
以
件
会
传
伯
位
体
佛
作
你
供
侠
信
修
儿
元
先
光
免
入
全
八
公
六
其
典
内
円
准
凤
凰
出
分
划
刘
创
利
到
刷
前
力
加
动
势
包
化
北
区
十
半
华
单
南
博
印
历
原
县
及
双
发
句
另
可
台
史
号
司
合
同
名
后
吗
员
和
品
哪
商
喜
器
四
国
图
在
地
场
址
坛
型
城
堂
士
复
外
多
夜
大
天
太
头
奇
奖
女
奶
好
如
姐
婆
子
字
学
學
安
官
定
宝
客
室
家
密
富
对
将
小
少
就
尾
山
州
工
巧
市
布
师
平
年
广
庄
庆
库
度
建
开
式
当
录
彩
律
得
心
必
快
怎
性
总
情
惠
成
我
所
手
技
投
护
报
挂
指
排
推
提
摇
播
救
教
数
文
料
新
方
无
日
时
明
星
是
時
晚
更
曾
最
月
有
服
期
本
机
杀
来
板
极
果
查
格
業
正
每
民
水
江
法
波
注
泽
津
活
流
测
济
海
清
温
港
源
澳
点
爷
片
版
牌
牛
物
特
狗
独
玄
王
玩
现
珠
理
生
用
电
白
百
的
皇
盘
盟
目
直
相
看
県
真
码
社
神
票
福
科
程
空
站
童
第
等
算
管
精
系
红
级
线
组
经
结
绝
统
综
网
美
群
老
考
者
联
肖
能
自
色
花
英
苹
营
葡
蓝
藏
行
表
装
西
要
规
解
计
记
论
试
诗
话
询
语
财
费
资
赌
赛
赢
走
跑
路
软
载
输
过
运
这
连
送
选
透
通
速
道
部
都
里
重
金
钱
铁
锋
错
长
门
阁
阳
限
雷
霸
青
面
预
风
香
马
高
鬼
鱼
鹰
黄
黑
龙
챨
ﬁ
️
！
（
）
，
：
📱
😀
😉
😊
😛
🙂
##s
##m
##i
##l
##j
##e
##n
##k
##a
##z
##o
##h
##u
##t
##r
##y
##ž
##g
##v
##p
##č
##Č
##׼
##Ф
##f
##A
##T
##E
##V
##M
##c
##b
##d
##3
##9
##期
##8
##白
##小
##姐
##免
##费
##彩
##库
##ا
##ش
##5
##1
##6
##š
##é
##q
##N
##U
##Z
##м
##е
##н
##і
##F
##O
##R
##I
##D
##S
##K
##P
##L
##J
##2
##x
##w
##X
##G
##Y
##Ã
##¥
##ラ
##イ
##バ
##ー
##の
##レ
##ュ
##î
##H
##0
##°
##C
##7
##т
##о
##и
##Š
##á
##í
##4
##ý
##大
##富
##论
##坛
##B
##ö
##ʲ
##ô
##夜
##明
##珠
##准
##开
##奖
##л
##ч
##а
##ˮ
##̳
##ć
##香
##港
##马
##会
##全
##年
##资
##料
##W
##α
##ν
##Q
##¬
##Ć
##ü
##六
##肖
##中
##特
##数
##字
##è
##р
##ы
##в
##救
##世
##码
##报
##最
##记
##录
##к
##美
##女
##图
##原
##版
##士
##玄
##机
##с
##я
##ン
##广
##西
##诗
##片
##נ
##מ
##א
##ь
##合
##宝
##典
##щ
##й
##д
##色
##ע
##ו
##ה
##ح
##һ
##÷
##ʫ
##п
##黄
##仙
##η
##ς
##地
##高
##手
##快
##现
##场
##东
##一
##句
##定
##三
##精
##选
##二
##ת
##ר
##ā
##正
##单
##双
##表
##老
##结
##果
##品
##ス
##连
##海
##事
##学
##生
##财
##有
##道
##网
##址
##买
##提
##供
##ʽ
##ั
##บ
##ม
##อ
##ท
##ุ
##น
##ก
##า
##ร
##Ž
##ů
##国
##商
##®
##ó
##下
##行
##ṭ
##県
##²
##ϲ
##ͼ
##力
##х
##是
##在
##入
##的
##情
##到
##Ʒ
##֮
##四
##内
##з
##ж
##ś
##đ
##˝
##ب
##س
##ی
##ت
##ن
##ج
##م
##ッ
##ト
##シ
##リ
##˼
##ä
##™
##童
##独
##平
##ά
##尾
##¼
##У
##−
##ю
##发
##分
##时
##¤
##ř
##ド
##ジ
##グ
##ח
##ع
##د
##¨
##交
##流
##群
##ç
##度
##级
##物
##文
##代
##性
##传
##人
##光
##创
##作
##以
##ą
##龙
##本
##台
##摇
##直
##播
##μ
##π
##λ
##έ
##ω
##百
##ρ
##τ
##θ
##ȫ
##ê
##Л
##А
##С
##Т
##И
##К
##О
##В
##Х
##×
##у
##ل
##ى
##ص
##ي
##金
##多
##和
##波
##门
##å
##ł
##¹
##了
##水
##化
##统
##计
##前
##面
##试
##Ö
##æ
##预
##测
##官
##ц
##г
##Ƭ
##ľ
##京
##赌
##侠
##ę
##い
##て
##另
##牌
##葡
##©
##赛
##投
##し
##あ
##な
##た
##が
##相
##く
##っ
##ら
##ë
##́
##天
##ı
##デ
##ィ
##ß
##红
##室
##心
##钱
##站
##ַ
##惠
##推
##方
##法
##之
##޴
##电
##子
##ो
##极
##ə
##十
##排
##З
##Р
##Ч
##Я
##对
##藏
##阁
##雷
##锋
##ܹ
##号
##б
##â
##解
##密
##刘
##伯
##温
##布
##õ
##ō
##ϴ
##ҹ
##Ԥ
##家
##市
##↑
##э
##ш
##Ä
##ƻ
##€
##将
##看
##区
##今
##语
##位
##ě
##ι
##ε
##师
##用
##他
##ο
##κ
##υ
##ú
##ா
##ர
##்
##社
##ſ
##霸
##器
##八
##过
##ʷ
##ș
##Е
##ֱ
##ذ
##ه
##总
##ź
##走
##势
##英
##神
##算
##万
##堂
##曾
##ف
##ر
##ة
##Д
##件
##业
##客
##为
##公
##司
##ţ
##经
##ş
##乐
##ъ
##同
##奇
##ロ
##ル
##パ
##ク
##テ
##ð
##九
##ñ
##鬼
##黑
##印
##刷
##β
##民
##挂
##无
##先
##´
##😉
##М
##े
##स
##州
##五
##̌
##δ
##ί
##月
##日
##ű
##新
##历
##ő
##真
##出
##目
##花
##ф
##ア
##コ
##サ
##と
##チ
##え
##る
##で
##す
##Ł
##格
##要
##你
##ֳ
##Ĭ
##七
##ό
##佛
##星
##护
##福
##动
##个
##à
##王
##综
##ň
##Б
##ு
##க
##ή
##Ñ
##ã
##ğ
##に
##を
##教
##划
##外
##第
##泽
##σ
##ك
##ﬁ
##考
##系
##少
##好
##鱼
##通
##ा
##व
##ͷ
##ù
##̶
##پ
##凤
##皇
##ύ
##部
##メ
##赢
##组
##成
##员
##ū
##त
##्
##र
##क
##➤
##❤
##️
##Â
##ز
##ल
##ी
##Å
##¾
##ò
##É
##晚
##ɫ
##风
##错
##杀
##式
##儿
##主
##オ
##マ
##フ
##ż
##İ
##Ą
##Ĺ
##管
##婆
##ど
##ツ
##ま
##ī
##χ
##ह
##板
##半
##活
##铁
##必
##ї
##牛
##ø
##˫
##点
##来
##Á
##ĳ
##Ш
##争
##安
##Ť
##鹰
##就
##所
##得
##و
##华
##指
##元
##Ü
##่
##ง
##ன
##த
##ம
##工
##县
##ャ
##ム
##り
##め
##や
##か
##さ
##れ
##名
##だ
##お
##后
##上
##Г
##盟
##י
##源
##两
##ق
##☺
##联
##վ
##ʰ
##理
##û
##复
##运
##青
##跑
##狗
##史
##装
##Œ
##時
##更
##Ś
##γ
##ط
##可
##ם
##Ç
##喜
##其
##ƴ
##体
##加
##ˇ
##ک
##ブ
##ų
##书
##不
##规
##律
##ē
##œ
##📱
##透
##载
##は
##円
##け
##程
##什
##么
##פ
##き
##¸
##澳
##信
##П
##ă
##ʮ
##线
##绝
##自
##等
##カ
##与
##型
##空
##ť
##票
##ń
##つ
##も
##城
##タ
##输
##Ø
##营
##奶
##ё
##能
##إ
##業
##ב
##う
##學
##庄
##重
##山
##蓝
##≤
##ֻ
##利
##ி
##ש
##凰
##ƽ
##ض
##プ
##ェ
##♥
##送
##£
##µ
##吗
##ì
##注
##ў
##博
##챨
##如
##َ
##盘
##每
##爷
##ָ
##清
##ん
##当
##เ
##ย
##้
##ं
##พ
##ณ
##म
##്
##ि
##头
##ล
##ว
##ウ
##长
##Α
##Н
##查
##询
##包
##太
##阳
##技
##哪
##里
##江
##य
##خ
##ͨ
##苹
##ė
##こ
##Ë
##よ
##ï
##话
##科
##者
##Ǯ
##ד
##न
##ʿ
##■
##エ
##キ
##服
##Ź
##φ
##怎
##都
##º
##Π
##Ε
##Σ
##Î
##È
##→
##½
##ל
##北
##ɱ
##软
##我
##آ
##巧
##济
##Ó
##غ
##庆
##そ
##玩
##Э
##Ż
##Đ
##أ
##及
##گ
##●
##😊
##ڲ
##Ц
##南
##速
##★
##̨
##Ĳ
##限
##津
##ܼ
##Ӯ
##这
##路
##Ω
##Ę
##ี
##ส
##≥
##►
##±
##修
##建
##😀
##Δ
##³
##̑
##😛
##←
##✓
##🙂
##ni
##je
##ra
##st
##re
##ov
na
po
##no
##li
##ne
##ja
##ri
in
za
##ko
##la
##te
##na
je
##ro
##le
##ti
##di
##ga
##lo
##ve
##an
##me
se
##jo
##ka
##se
##ih
##ke
pre
pri
##vi
##va
##mo
ko
##po
##da
iz
##de
##či
do
te
##ta
so
##ci
##to
##ju
ne
##ji
##ma
ki
##vo
da
ob
##mi
##če
##ki
od
ve
##nih
##sti
ra
pa
ka
##go
bo
##ru
bi
##udi
de
##ce
##nje
##ove
##sta
##bi
le
##lja
la
me
##ku
mo
tudi
##lje
raz
##ča
##kov
##sa
##be
##do
##bo
##ns
pro
##hko
##nega
##lj
##sto
##rav
##zi
lahko
##pi
ta
##še
kot
re
pred
##anje
##pa
ni
##pe
st
dru
##nja
##pre
##za
##tu
to
vse
naj
##ži
##si
si
že
##ši
še
pod
##ar
##že
##gi
##lov
##ske
##nost
vo
##kih
##ca
ali
##ovo
##nosti
##ste
##al
sa
##love
##lu
##so
##ovi
##nem
več
##ba
##ravi
##lni
##gra
va
##jih
##ža
upo
##red
##ge
mi
##tev
ce
če
Po
svo
##uje
ma
vi
20
##anja
##lju
##ša
##or
##tni
##lji
tako
##ze
##čno
pos
sta
upora
##mu
##tro
##nu
##rje
##rja
##čni
##tov
ča
med
Na
kate
sp
jih
##ski
spo
##nov
##stav
##kra
##čne
##liko
sve
kon
##ču
ter
##ho
##dni
##ran
ži
##er
##nske
kar
##ska
##zna
Za
##prav
ga
pr
nas
##dno
tem
spre
##tno
##blja
##anj
ima
ti
zna
##nji
##du
##kaj
##šče
pot
vsa
zd
sk
##god
##ške
sku
##jem
##sko
Slove
smo
sto
##bra
##gle
##men
##šči
leta
##seb
tre
dr
ja
##cije
vr
##dar
nje
ze
##radi
##rani
go
pove
##anju
201
##co
##vni
pe
##ova
##tve
##let
prime
Ko
ro
di
no
vz
sem
##čnih
##bolj
##cev
##stva
##zni
##mem
##skih
##lno
##dat
lju
##cij
##stavi
##su
sP
bolj
bil
##ha
##den
##kti
##rt
##vlje
ku
##pra
šte
Sloveni
##gu
##pu
hi
##roči
##tek
##rni
tr
##rez
drža
av
ime
##dob
##vanje
##spe
razli
pravi
pla
##rov
pi
##sem
##daj
##cija
dela
##ško
##fi
##ški
mora
##pravi
fi
samo
pov
##krat
##sni
potre
##nski
bodo
##zo
##redi
##vno
otro
##govo
##raj
saj
jo
##skega
##čin
nekaj
pra
##00
gla
sV
##cijo
števi
19
podje
##nju
be
zače
tega
prav
##klju
##meni
tu
##kom
##šča
kje
To
##vaja
##nj
os
##roč
##rih
##del
šo
##val
bila
veliko
##nes
##več
##moč
zelo
##stvo
li
Ma
življe
stro
##nimi
##vlja
slove
bilo
Če
teh
dolo
najbolj
##rga
delov
##en
nam
kjer
##tih
##lek
##vali
##vro
odlo
##bni
##bu
zdrav
zaradi
##gov
njih
##ter
Ta
##nsko
svoje
podat
##tor
leto
brez
Pri
pote
##im
ok
Ne
##ših
oko
gle
lo
name
##nej
##hi
##stop
zad
var
##lne
dob
mož
vedno
##št
potreb
orga
sN
##kš
##is
##rej
##čna
deja
Ve
eno
##njem
podjet
strani
##reč
##stni
##hod
##jek
##memb
##nci
katere
##dela
Ka
čla
celo
##šč
nad
področ
zato
##orma
##mov
pogo
kra
##teri
##tvi
drugi
##cu
dol
zgod
##pravlja
##žni
oseb
avto
##met
##ven
##pr
##zu
##šo
Me
##sno
##tra
Ob
prosto
dne
Lju
mu
##pli
uporablja
##sli
zah
manj
tele
##nim
sS
druž
obli
##skem
##spo
ju
let
##gla
##ona
##pro
##stve
##čen
##ner
uspe
##lnih
##rno
##nskih
mla
##cer
##mogo
kaj
druge
##bli
zako
čas
Do
In
##iz
sla
vseh
vam
##vanja
##nom
kako
poli
##ujejo
siste
inf
veli
sko
##kr
progra
zago
ponu
sode
##stavlja
organi
ker
##pri
kri
ust
##ren
obči
##dov
stori
ena
##roma
##manj
##njo
tek
sZ
posta
delo
##vu
##pisa
sK
##led
Ra
zgo
osta
Ljublja
##nskega
ste
zve
dobi
##ljivo
##ledi
št
##pis
##vrop
##vsem
##jajo
##stri
dve
##jejo
##ranje
##kri
Bo
200
skla
##fe
##jno
želi
del
##rne
izo
Re
ozi
zapo
posa
##ških
skupi
##veda
omogo
##čnega
##vnosti
mest
naše
odloči
kateri
igra
nove
##meri
knji
oziroma
člove
##ali
##vne
uporabni
delu
##maga
##rjev
##dne
stran
Se
dan
glas
ho
Mo
neka
skup
boste
##mer
bese
##gih
gre
doma
svetov
dose
##daja
ci
##mpa
predvsem
##logi
##ten
##dje
##blje
razvo
izpo
prvi
projek
splet
##nska
##pla
sNa
##sk
posame
pose
dobro
10
##tem
Le
sicer
##laga
##nik
glede
prija
ven
druži
##cem
##he
##njih
##prej
sPo
pomemb
sO
##vr
##tri
##leg
sred
##lec
izvaja
##un
##sne
bomo
##kovi
času
Mi
proti
##ltu
##gre
čle
največ
poveza
##ved
##teva
Iz
danes
##dele
##tje
ustva
vklju
prej
opre
informa
##vna
obra
raču
vas
##ciji
##on
špo
##ška
poslov
##vnih
vred
##tovi
su
vpra
či
Od
sT
ure
##pove
##ovolj
Go
teža
ose
par
Ja
mese
niso
##lih
Slovenije
##škega
sodelov
Te
sple
vodi
##nika
##rek
##zor
bili
##vnega
##mpak
bole
##dobi
kr
vendar
##vih
poseb
##kli
Pa
pomoč
##tr
nada
akti
##vega
##lna
obve
imajo
splo
##iskov
##ljo
ši
18
##paj
obi
##in
elek
gra
De
velja
ba
an
strokov
##vnost
učin
##nec
##sedni
Pre
tri
kultu
različnih
##sih
izku
##sle
podatkov
##koli
##tne
##vah
vsak
časa
fo
njeg
obču
##deli
doda
##šnje
Sloveniji
sD
bar
##gled
##gleda
politi
Da
ome
##hu
okoli
Je
##kre
##jni
mogo
##lom
kole
način
pripo
zas
##vanju
udele
sli
izdel
druga
ge
slu
##tan
toč
##šanje
##roča
15
en
##rna
drugih
gospo
popo
organiza
##log
##ob
izobra
veči
##lož
tra
##ciona
poja
kom
določe
novi
omogoča
svetu
pomaga
Sa
more
območ
svojo
##stra
svoji
ljudi
sodi
##žje
vpli
vaše
oz
reši
ču
svet
ener
primeru
vla
viso
pomeni
področju
mesto
##pad
skupaj
12
odgovo
##lija
##zira
fina
##ng
##kaza
##čr
##risti
##haja
##bor
##rva
##zen
loka
hitro
stra
dvo
medi
##stvu
odsto
##čine
##jev
družbe
namreč
vsebi
kro
##ben
sZa
La
sM
##up
##dr
ugo
cen
##stavlje
du
##ver
##nova
##tavlja
nasled
mno
##tom
##žno
obja
##nar
So
odli
##meti
klju
naro
obdob
##zem
uporabi
zgodovi
kakš
predstavi
skle
##kovo
mogoče
Naj
pridobi
jim
ampak
nji
ak
Vi
##mati
naslov
vozi
last
##vet
zmanj
spreje
nepo
novo
začet
##anjem
predsedni
##plo
##anov
##tere
##lijo
spe
##dnih
##una
##nemu
letih
##ranja
predstavlja
podjetja
##arja
mini
povz
vlo
##šču
##vede
##cial
prihod
dva
##ravna
člena
Ro
fa
mladi
šti
res
##šno
##dna
letu
katerih
##ble
pogod
##lnega
jezi
##dan
izra
trenu
uni
ar
izobraže
##jen
vseb
primer
biti
proiz
Pred
vsako
##var
nav
##kega
potem
naredi
##gen
pu
zašči
trg
preko
##dbe
##ur
##novi
Tako
fil
##tna
malo
mar
sre
##lci
vsi
##rom
nasta
treba
spod
izme
dolgo
energi
##menta
##jte
priča
takš
nek
poda
načr
skr
govo
##nd
##čil
sČ
zdravi
ustvarja
poteka
##šni
11
##iskoval
naš
##nskem
Ni
##ovih
pol
pou
##rši
##šen
##som
tež
študi
nima
##ber
vsem
zdaj
evrop
šol
##ple
##krati
##štva
##bira
potrebno
uporabo
življenje
obe
ura
##jemo
podla
30
##žen
vsaj
dni
##čila
seveda
##telj
##tre
sti
ev
2018
Ce
##redno
##sla
vra
##bil
žele
Pro
Pe
##dajo
števil
mestu
##telji
##cah
ško
##len
mor
neko
##pravlje
##pera
sporoči
##vala
##lta
##sov
postop
##tkov
otrok
##stih
##om
##bej
ple
namenje
Mari
opravi
podob
razvi
pripravi
stre
voljo
##škem
napa
učinkovi
gospodar
EU
izdela
##čuje
##per
poti
bli
##naša
torej
##cej
računa
okvi
al
regi
##ch
oce
koli
##kem
##iska
##čina
opo
##vajo
skoraj
##set
##ati
sezna
naši
zdru
##metni
##kle
posla
##fo
foto
##jši
sme
Be
izbolj
naroči
vide
##kor
##stan
nagra
razvoj
posamezni
##sar
preje
poš
##ček
prev
oči
narav
prispe
##dal
odpr
precej
glasbe
##nera
Bi
kakovo
##dru
posebej
razu
prese
tekmov
##str
##jski
življenja
storitev
vidi
##štvo
zagotavlja
oh
pozna
og
##unk
izgu
ru
zahteva
##jske
lastni
##tera
prebi
živi
##niki
prve
sreč
spro
člani
opravlja
##naro
##lovi
zanimi
##mlje
##ščine
ide
komu
##nejše
##tnih
##kla
##stru
posledi
kli
sI
14
zuna
sr
spremem
bla
##nija
##stno
špor
sistem
##kaz
resni
mednaro
##mlja
mesta
social
možnost
##jše
teme
rast
##tuden
svojih
##mr
svoj
vod
vode
us
##lasti
nara
Vse
materi
##nah
zave
oblikov
podlagi
sČe
Evro
##telje
Si
##man
finan
16
##nali
program
##misi
odstav
Med
sam
##kup
sL
skladu
tehno
prostor
elektro
kre
##zulta
vpraš
##lcev
##stopa
##vati
##gaja
sveta
zaklju
skozi
katerega
vzpo
##tka
dogod
proble
##ril
proce
fe
voli
potr
##rjem
##čih
dodat
nato
##prave
##žive
13
poleg
##lnik
pride
izbra
Evrop
##dali
##nejši
##traj
##grafi
katerem
Ti
Ker
izved
funk
avtomo
gi
priš
##rob
17
sede
izjem
##čnimi
##mni
##čnem
pora
doku
opa
plo
000
nadalje
stop
##pora
osnov
Tudi
izmed
##stoj
naprej
lu
##hov
pozi
upoš
bra
Ljubljana
informacij
ri
##nostjo
tisti
uči
najde
služ
Ju
milijo
199
pisa
trgovi
dovolj
##cih
evrov
##loga
##pira
##dra
Va
##zne
inter
zra
Ljubljani
##dom
##staja
meri
##vod
sredi
upravlja
cer
prizna
dveh
##stev
lepo
temu
tiste
##ovega
možnosti
krat
nič
##rite
zade
sploh
koncu
stolet
Av
države
tret
uži
podjetje
##kar
število
##tovo
katero
spletni
pomembno
dele
različne
##rvi
##ščina
ig
##miš
odvi
dovo
dra
##rše
pomočjo
100
sledi
študen
25
verje
misli
##ksi
razme
##kon
razpo
##jh
hu
##nese
##vari
##dilo
dejavnosti
##boj
šport
radi
##zno
ZD
staro
##ladi
rezulta
pokli
poveča
posku
hra
##čka
##alni
čr
spozna
Že
podatke
tej
odkri
part
hkrati
Zato
zdravstve
##pti
sKo
tam
sami
ljudje
tehni
##slov
##žo
eki
##publi
las
son
Vo
Kot
zaposle
vese
Li
pogosto
takrat
nepre
##sneje
viš
minu
dopo
moč
ji
Prav
##tvijo
zmo
sA
##pelja
##varov
##ktu
glo
kup
##ala
nes
ugotovi
##dek
drugega
povsem
nem
ravno
preve
dostop
##rija
##nove
Poleg
potrebuje
Fran
spremeni
imeli
##riti
prepro
eko
Dru
vzdr
##loži
okviru
varnost
##zd
postavi
poško
ustan
##jskih
##čnim
##stu
##mre
član
koliko
delav
obravna
sedaj
kla
oku
sR
##torja
##dila
štiri
ukre
zase
RS
prvo
##ljenje
##andi
popolno
pribli
oro
morda
bolezni
##vnem
##jša
Mar
spremlja
##stov
podpo
##tja
##bora
bom
##tke
drugim
čez
prepri
kvali
mne
##ljub
zgolj
prilož
##der
##lim
##kro
začne
##rijo
##čili
voj
Še
##loge
##šnji
##mor
odstavka
##ster
naspro
##nil
2017
ozna
tehnologi
začetku
posve
##vami
leti
##delje
sodob
smu
##nos
majh
njimi
##izku
enostav
##časno
niti
npr
##čiti
##rka
Slovenija
##čem
##klo
neu
bile
##tori
letos
##dbo
zavarov
občine
spomi
svojega
naših
njegov
Pi
##bere
##stopi
šola
##ljive
##kva
##čo
starej
življenj
edi
fizi
##lca
##znih
nepos
##alno
##tran
##nstve
poskr
vsebuje
zagotovi
prebival
obla
##velja
letni
##časih
##stne
ameri
čaka
##tira
##tnega
direk
Lo
##zov
ponuja
običa
stav
##reme
Sta
oseba
zma
##čilo
boga
imel
ogla
zbi
novih
četr
čeprav
sPri
posred
drugo
Vsa
No
računalni
##lago
##dil
kdo
##tru
##rnih
##lin
ban
odda
najpo
##pov
kmeti
zahte
nu
##njega
zakona
##gli
konča
preh
umetni
storitve
##il
##vesti
raziska
ek
##mlji
prepre
##jsko
dav
##bili
obse
viši
##vla
področja
stvari
nava
imamo
##stro
##dnega
##čar
znam
##mp
pripravlje
zaba
##kšen
hote
pogodbe
##jena
ljube
konce
bolni
visoko
pravo
##sna
prevo
uporabljajo
50
##stave
Raz
##sen
vož
##pusti
pomo
ur
##novno
toliko
rešitev
nobe
slovenski
skupine
pretek
neo
kaže
Tu
dom
Di
obliki
nosi
##nami
deset
zame
##nice
deluje
povzroči
tradi
čim
##ovati
eden
fotografi
##nek
##nima
Ba
##stre
šole
##eno
An
zaseb
človek
skri
Ru
##letni
odra
reše
območju
##tali
Sve
uče
natan
##lan
##pek
večino
##ranju
##bri
##ljiv
##tega
večje
zahtev
preveč
##lnje
morajo
##lega
izko
##skim
##hodni
Jo
genera
polo
##kuje
spodbu
težave
##mom
predstav
spletne
osebnih
zadnjih
##žja
oče
sezo
prepo
naza
ustrez
2016
poroči
enega
sistema
##dnje
klu
podatki
težko
##voji
odgovor
mobi
##niti
poči
dogaja
razume
Ze
prakti
ogleda
24
zo
pouda
##poved
telefo
elektri
##kakor
predsednik
##jema
##van
umet
##šal
dena
##čer
upošteva
##jekti
želite
##cami
zvo
uri
sodelu
stanov
##torji
sB
##dba
zav
meni
nudi
omre
odpravi
##kvarja
vrhu
takoj
temveč
sU
##žuje
Nem
##plika
ustanovi
red
slovenskih
##ljivost
Več
##rili
##nejših
osebe
gib
žup
##pravo
uredi
##čeno
##olo
sek
voja
##gel
vzgo
preizku
izbi
poko
premi
##šel
##fika
##sel
kandi
00
##čevanje
izjemno
večji
##tij
##ment
napre
njegove
##dili
##raču
enako
zvezi
odst
pet
##el
##dih
##šnjega
##ck
##alne
gro
##šnja
sposo
##anu
nisem
##dovi
energije
prven
ukvarja
enkrat
Gre
##nili
ZDA
svojem
preda
uporabe
spletnih
okro
zmanjša
##žil
##alo
Lu
ravni
popolnoma
šele
uvr
##dnik
##rila
##bru
katerimi
##kah
##ljublje
uvelja
okto
primerja
učinkovito
##ovali
nikoli
napo
objek
brezpla
obdobju
priredi
##ljenja
##ljivi
otroci
ravna
novem
##rije
##rati
sredstev
##rb
##feren
prva
plača
21
ke
uspešno
obiskoval
zele
Republi
otroke
projekta
kljub
##terih
pač
izboljša
sOb
##dol
##ljen
gradi
vprašanje
odstotkov
informacije
Fi
##fa
##tal
##nejo
kvalite
##net
omenje
poča
izde
smi
Ki
izdelkov
dogovo
isk
##janje
komisi
tiso
navede
zdi
opera
spa
##vizi
sodišče
težav
povpre
življenju
stoletja
##šuje
sG
##neh
poro
priso
igri
dalj
produ
treh
##lede
##mina
Al
psih
##hajajo
delavni
pokaza
potov
obstaja
##ljivosti
močno
kombi
list
##ljem
##zma
živali
##govarja
nekaterih
nadzor
##tvah
##line
##ženje
##mišlja
tuji
##čanje
sobo
prvega
površi
##pom
upravi
##nikov
stan
njihove
vpliva
pričakov
2014
##tnik
proizvaja
delovanje
obo
aplika
pis
##čnosti
##um
22
2015
novega
##ndi
##tin
pravice
##čijo
verjetno
##slu
držav
tov
kupi
Fa
##raz
kraj
njihovo
##rji
navdu
Ura
##kim
Zaradi
film
deže
pojavi
velik
vrednost
piško
izvo
zgra
tvo
pozor
pogovo
kora
deli
številne
zbra
klasi
##šek
približno
opti
##dustri
kdaj
##ol
pome
svojim
##čnost
##bno
##cijah
poso
knjižni
znanja
vrste
organizira
ljud
turisti
##stnih
##nta
##dome
konec
arhi
##čke
##lnimi
priza
##vec
##ljiva
anali
##tivno
avtomobi
odno
##bah
##ziv
načrtov
sva
rde
sNe
vzdrže
##ženi
##stna
tukaj
aktivnosti
dneh
##jskega
moti
##čan
vredno
raziskoval
razši
mode
skrbi
predvi
##rana
Lahko
kasneje
najprej
posebno
##ženja
##jeni
dej
sJ
stru
ponovno
njegovo
prvič
##rajo
sestavi
prodaja
izda
##ral
Hrva
cilj
javnega
zakaj
##talija
##ljeno
poslu
medtem
vrednosti
##lina
##žar
želijo
##jeno
prostora
##lep
##novo
##nica
strokovnja
##žna
##hodu
starše
vozni
prevze
##žili
vodo
vrt
trgu
imela
##žne
##rec
goz
##čnik
poza
##stvom
##meta
položa
zemlji
dobre
40
Kaj
nekateri
Ga
##stem
pon
zlo
Pod
agen
izkuše
včasih
programa
##sil
zavo
angle
##for
##žijo
kori
##mbo
nekoliko
##lnim
##čev
odpad
tretji
##rža
išče
niz
##jših
jaz
začel
skupnosti
industri
##čena
slovenske
it
poču
društva
com
razmišlja
##nin
nakup
ele
profe
podo
vaš
delovanja
##tak
##tar
univer
proda
##boru
drugače
otroka
okolje
občutek
poka
##upa
polet
zla
Uni
izkušnje
dana
katego
njim
Ku
kakor
dopolni
dvi
občut
svetlo
##dja
najboljši
##viš
ustre
speci
šoli
določi
nazaj
govori
##kel
intere
slad
##danje
##endar
boljše
gledali
uspo
##jska
gosti
prepozna
uspeš
standar
obis
ženske
prek
s1
Ali
zaslu
Spo
##dbi
##malu
2013
obvez
prvem
posto
23
##čega
sebi
priljublje
##pisal
začela
morali
najboljše
##življa
nadome
partner
avgu
##šeč
prazni
zadnji
##kami
zaposli
zazna
##stveno
##teljev
duhov
prilago
kriti
teden
##cijski
dejavnost
##snih
obraz
##ture
obiska
znanstve
čisto
projekt
##dvi
obdobje
##lte
enostavno
nena
##jan
obvesti
prizade
##alnih
popu
##šnjo
notran
imate
cerk
##minja
razvoja
obdela
##stitev
najmanj
nami
telo
##škov
##ljena
sh
slovenskega
podjetju
izklju
Evropi
odločitev
##gne
##rska
##ščini
Kar
zdravje
naciona
##mični
pomem
nahaja
##ger
izbira
##sten
pona
našega
številnih
vprašanja
žive
Ho
iska
hla
maja
čemer
##ptem
njej
nare
##pal
##cen
avtor
večina
zlasti
tvega
meto
povzroča
konku
odloč
celi
##čeni
premo
##tju
beseda
##lnika
moj
sprejem
traja
spet
točke
drugimi
podalj
dodatno
določ
##rke
pes
priložnost
##piše
##rju
fran
dedi
svobo
##ime
##rano
##trov
namen
traj
neza
ohranja
vaši
##20
priti
podjetni
oktobra
izvi
##dri
stranke
vlogo
por
tisoč
začeli
obre
nau
jasno
##ww
toplo
njem
objavi
demo
predlaga
bolje
prije
##it
Tr
##čujejo
seboj
##nila
miši
##leč
sKa
moramo
moje
##tnosti
nogo
časov
Ca
##zija
kakšno
mašč
##dijo
športni
sodelovanje
stri
spremembe
sE
moči
Vendar
sTa
milijonov
zdra
katerim
nadalj
javno
##misli
kolikor
kilo
izvr
Ži
##logov
pomoči
nači
##kulte
##tua
priče
##leti
##tel
septem
udeležen
he
##rane
hrani
##diti
doseže
občin
slab
junija
inš
njihovi
lep
ponudi
pravico
inte
lažje
spletno
Upora
sposob
sama
sTo
promet
ured
njegovi
domači
odlično
kapi
##zije
##skov
##dem
sodelovanju
##ljuje
udob
##mat
pridru
trenutno
##mla
##nije
vseeno
usme
##prava
##vom
##til
##setih
roj
##čino
##ul
##dro
##žji
vsega
##žbe
teko
Leta
vreme
znanje
nov
##stavo
##zijo
nače
izredno
tera
sploš
##vanjem
razen
sVe
tokrat
morebi
##tim
nase
##lika
velika
Občine
Pla
moški
opreme
##lišča
##kujejo
##vov
všeč
##ljivih
198
sMe
And
prežive
apri
spreminja
##skimi
zaveda
##žu
##torjev
konca
##menje
zadovolj
##stjo
##riji
zakono
##jne
##ščino
##dati
širo
nepri
zvez
družine
centra
fan
različi
itd
muze
prema
podrob
sŠ
podjetij
##cijske
vzor
temelji
##ujemo
##tki
pripravlja
www
26
##čki
ovi
članov
julija
marsi
##telja
mnogo
naku
60
izvede
Kako
imen
Republike
prak
Kra
bri
reze
##pisov
strate
medici
nekatere
sub
##dnem
manjši
smr
podobno
primerih
telesa
##jene
država
občini
potro
Ameri
Ha
zagotovo
##ler
kadar
sIz
točk
pravic
Kon
decem
28
investi
##bimo
igre
##lnice
##grad
nesre
Ri
##čitev
##sku
dejansko
uli
razred
javnih
##graf
Zako
komunika
##zame
Kri
##us
##šali
običajno
okolja
družbi
Seveda
##lnem
človeka
dokumen
določa
##zan
izpad
Veliko
##nici
men
vrsti
##zori
tistih
##stitu
tak
##jskem
vsebine
revi
same
počitni
##tnost
##manjk
##rali
doba
dre
##čani
skupina
##vek
##min
preo
papi
državlja
ministr
27
prost
preprosto
##tnem
zamenja
pogle
sOd
priporoča
##ton
194
ver
situa
##tosti
polovi
tempera
zanima
##zacijo
turi
omeji
prito
2012
vrst
okrog
festi
ureja
tru
dožive
##stega
teča
naslednji
mal
večkrat
kakšen
izpi
čudovi
ljubi
kmalu
najviš
preteklo
učen
imam
najpomemb
##bel
##por
Gla
Maribor
kombina
enem
proizvod
podporo
drug
redno
vede
grad
##lova
vzpostavi
potrebe
zno
poši
postal
največji
ves
neposredno
dopu
##sijo
vrsto
##bami
sodišča
Jan
ženska
Slovenijo
mlado
##nejša
sne
poklic
##prt
##šol
rok
##tt
Gori
on
nih
knjige
delodaja
cene
##joče
##gor
vzro
vašega
vze
denarja
##db
tretje
našli
kakr
sredstva
dia
digi
šolo
nova
dokumenta
teo
uporabnikov
##gom
podpira
##th
rešitve
##gati
eni
Tre
slabo
konkuren
velike
##forma
ponudni
sPred
zme
stanje
vir
veliki
bu
večjo
##šte
gori
vključno
##ncev
obsto
##žnosti
pake
##ženih
mre
privo
Čeprav
tradiciona
množi
delovnih
Nemči
##denti
prejšnjega
poroča
Vr
litera
##žnih
tovr
lastnosti
reži
popol
produk
Ar
##zaprav
##hodi
pusti
##cijskih
prikaz
##gar
##lišče
##zacije
zaščito
##kan
Neka
Avstri
Cer
vozila
Zdru
odstrani
##alci
##rnega
##tku
##nijo
ogro
čišče
okolju
naročni
področje
uresni
vsakem
državah
Jane
franco
sklo
pogoji
##ševanje
želimo
znova
našo
oto
blo
##ljeni
zapisa
osebno
Co
posameznih
uprav
možno
piše
roko
stroškov
naročila
igral
sogla
##sablja
zadnjem
##res
2010
končno
parki
glavni
postane
prispev
str
gr
##dova
posne
izkušenj
hiše
norma
izve
ostali
njegova
objavlje
##pisi
##razu
indi
parla
ljublja
Uradni
denar
kolesa
prinaša
besede
barve
spoš
anti
nepremični
prihaja
potenci
pomembna
sv
preno
Ci
poob
stopi
2011
močne
izpolni
sodela
sebe
dobili
postaja
svojimi
##žila
javni
proraču
zveze
##rij
pogled
##mini
izobraževanja
naša
29
##alna
prvih
starši
boljši
dija
krši
avgusta
Vsi
vsakega
sSe
elemen
državi
kože
gor
##mih
for
##naj
družba
napove
197
trans
Gra
njihovih
namenjen
##verje
našem
razre
##nt
polni
razkri
##zarja
##lon
varnosti
##nike
tisto
omogočajo
znotraj
kam
31
praz
##čene
izja
Mu
##lar
umi
usk
mladih
##oni
predsednika
organizacije
pogoje
izdelke
zdravljenje
naslednje
##čenje
sose
##cijami
Fo
nadaljevanju
temelj
##pan
zbo
##stnega
##am
občina
##titu
statu
##danji
Pravi
imeti
predvide
kari
Os
##žini
nujno
zbira
arhitek
Hi
kožo
ugod
vso
prava
službe
##gna
imenova
Danes
srednje
zi
večinoma
##glo
karti
##žele
##tala
##as
##bljeni
določene
video
vsemi
območja
Mini
pristoj
vrh
postopek
zni
##RA
km
stvar
nastavi
opazi
izbere
spodbuja
##stava
nasi
##kev
povedal
sreča
sDa
##joči
janu
izpolnje
očitno
seznam
izrazi
usposablja
##šnjem
##kraji
ponudbo
##živi
pomanjk
oza
##jete
##pelje
hitre
##loma
##ščan
prostovolj
##stajajo
sov
italija
##ovanje
Su
##cep
##bijo
interne
zgodbe
##hodno
vojne
pesmi
roke
pregled
šest
dobil
##hor
##vale
kuhi
kandida
sLe
predme
račun
prednost
soo
stek
zgodi
dokaz
##zdrav
##ščen
##pijo
narave
znači
pripa
odloča
čet
moral
bistveno
vaših
##bar
ohrani
večjih
mle
voda
sNaj
prišel
pamet
mlade
partne
trgov
##ščih
Univer
dobri
obveznosti
prišlo
per
opravlje
smeri
kata
##štvu
uro
vrata
##stvi
soboto
plani
Kljub
zmog
Ima
cesti
##žnost
mesec
predlog
navo
problem
##tili
ogre
hrva
Ge
##lnju
okre
drugem
fakulte
celoti
prijavi
##dala
telef
EUR
Nje
sRa
##dite
aprila
oskr
vključuje
stare
##50
plači
##žbo
apa
struktu
polno
##fina
##trej
obeh
minut
man
razvija
osebne
s2
poziti
identi
##ram
postopku
sodni
dober
##br
veče
začetek
prostoru
ustrezno
##tisti
najem
pomemben
pone
im
##ser
naprave
##sili
##ly
nevar
žal
##nce
opremo
raziskov
Du
##budi
območje
manjše
SD
##čeraj
številko
slovensko
##jah
ogled
tla
##cijskega
pojasni
hrane
uporabniki
vstop
##NI
mesecev
sodelav
zaščite
zim
pova
spu
sLju
Drža
osvoji
##limpi
energijo
##valni
##čite
sDo
pripomo
škod
bio
seve
čisti
zaposlenih
spletnega
daje
Goo
najdete
##siona
vozil
bliž
##har
##kler
##škim
dogo
septembra
vem
##mar
nastopi
dosega
vlada
izdelek
možga
ute
blaga
dokon
pripravili
vasi
roku
##niji
dejavni
sC
2008
najboljših
500
##nisti
##čič
80
nimajo
jezik
ogrom
lani
##lem
skupno
presene
##bila
pobu
##nskim
jeze
##redo
praktično
of
##tah
70
vsaki
splošno
##rah
196
področjih
nis
nadomesti
##šje
pomena
##jna
##žem
Evrope
desetlet
osred
##žba
##timi
gradbe
Sku
zaup
##ščanje
leži
##deljo
pregle
namenjena
televizi
stroške
sklep
višini
digita
opremlje
prihodnosti
##stavljena
želja
pokojni
njeno
razpis
izobraževanje
staršev
##tijo
up
njo
servi
2009
##goste
Kr
##štev
izpla
##drav
##plet
morate
namesto
plače
nedeljo
njegovih
priložnosti
institu
menja
snovi
sŽ
razvoju
javnosti
##OS
vašo
ljubezni
##glav
lan
##žena
aktu
vsekakor
nanaša
zakon
##čkov
##nite
strinja
domov
nihče
co
##nic
stranka
##kali
##ss
zgodba
zado
##nitev
novinar
klub
ugotavlja
Evropske
vme
##TA
pravilno
##pred
Dra
družbo
različnimi
vsebujejo
##nati
##žene
##rjenje
navi
skupini
##tvami
##njena
##mba
##struktu
blagov
sm
sed
rad
##ljev
##cijsko
avtomobil
mesecih
starosti
višje
repre
prevaja
inten
##niku
##slej
uporabnik
##bele
notra
super
decembra
##ale
uporaba
zgodbo
##sor
##sled
namene
javne
kita
opis
izvajanje
števila
povez
##merno
sen
##koho
pospe
oblike
neposred
center
oble
sPre
Pu
##žan
izkoristi
umr
kakovost
pode
kolesar
posledica
##lnica
##žnega
podeli
dneva
Tri
dejal
##stojno
ab
okra
zunaj
letno
ponudbe
konkre
##šne
sodelovanja
zanimivo
pad
civi
vne
pogleda
Odlo
upa
##nico
ža
##čju
nadzo
projektov
ustavi
strokovno
##dina
počasi
bor
daleč
določeno
izdelki
##stavljen
začetka
usmerje
Vsak
smrti
febru
evropskih
##zneje
##ljene
##jnih
sin
kakovosti
pono
Sla
simbo
##čeval
Bar
Bri
##fri
pravzaprav
##čimo
letal
plasti
postala
Nova
obro
##site
vsebino
zmaga
##vamo
skra
Najbolj
zdravila
##anjih
uspelo
promo
tiska
##čini
meh
kemi
##metrov
zgodilo
programov
##vil
##zacija
90
sKot
Šte
določenih
isto
namenom
resnično
Glede
##žnik
primerjavi
ostalih
številka
ekonom
stol
star
jezika
##lej
ska
svetovni
##tnim
naslednjih
državni
udeleže
prepriča
Veli
vgra
vlaga
tujini
##ok
objekti
socialno
##nomi
##čenih
hiši
pošilja
prejem
##hoda
##čuna
vlade
##get
sH
izkori
ostale
preden
predstavljajo
znameni
##lnosti
znamke
##tila
pesni
sled
spletu
domu
##pet
or
##kcije
vrsta
##kovih
potni
uporab
izkušnja
velikosti
##kaže
ceno
##rala
infra
znaša
naju
##ditev
opozarja
##kova
vsebin
besedi
delujejo
##šla
reci
##ovala
##doma
društvo
novembra
##njen
največje
##ščeni
##vidu
globo
velikih
sklada
##čku
zahteve
uvrsti
sIn
##jme
gleda
mimo
družino
osebni
uporabljamo
nivo
sladko
##šanja
He
kulturne
##ut
reprezen
osem
avtobu
##džar
knjiga
##mbi
##che
##vem
blago
##pisu
##valo
##slo
nekdo
zgodovino
tuje
##delu
##lozo
ola
sF
primerno
##gri
grafi
ustanov
najbo
35
psiho
pojavlja
sporazu
2007
sestavlja
##ktor
ted
gu
Toda
##njeni
##berite
krepi
##orda
pomi
##at
mati
nismo
cerkve
delom
sprejema
zavi
##črt
nose
preteklosti
kulture
izvedbo
potrošni
nagrado
zanes
prišli
zgodovine
intenzi
njen
pošte
raje
zgor
##tami
celotno
namesti
zaple
Prvi
##alnega
##ZS
##beli
videti
privošči
##dor
petek
##lce
##tina
dogodkov
datu
Vz
kolo
financi
vsaka
##rami
ostaja
kažejo
motor
odločili
trenutku
posledično
##EN
invali
tro
##ER
njega
večja
delavcev
obstoje
vti
pokri
pogojev
spoštov
Kita
sPro
naloge
uvo
sprememb
##melj
železni
cve
raziskave
alkoho
kopa
para
##čevanja
Otro
roka
delovno
##id
bližini
##IS
dirka
isti
##liti
rea
telesu
##mula
zapr
politike
delovnega
dis
otrokom
meša
česar
logi
##pen
Ško
##rat
natančno
##sje
mestih
Zakona
pomen
Kran
priklju
skupino
dvema
večini
II
vodja
Ber
kakšne
##imna
odv
direktor
##bite
300
nameni
ogle
bosta
delež
##snega
Ampak
izkaza
osnovi
jezikov
umetnosti
##nine
prihajajo
Zve
##joč
Ste
##delov
##lka
hrano
##ljenih
dvig
inovati
teka
##mb
cm
aktivno
želeli
dokler
##šli
##ščeno
potrebujejo
posebne
njihov
izhaja
jese
nasve
##lnico
##pih
kore
slo
postopka
nezna
svetovno
zdravja
širi
prihodnje
študent
Jože
zadovo
temperatu
župan
2000
pomagajo
koristi
izpadanje
sLjublja
zadnje
sTe
državnega
slovenskem
##njeno
nave
pev
žival
imenov
meha
geo
ene
##govor
##lijar
##lične
##ED
razlogov
boš
prikaza
Fe
odpove
dediščine
proces
osebo
##litev
nastopa
zgodovini
Bu
skupin
##vice
dejstvo
štirih
infrastruktu
varstvo
zao
##AN
##žite
uporabljati
prete
##dimo
žalo
milijar
toda
referen
sedem
##šati
ad
stari
opozo
poh
##nskimi
##ščin
marca
Komisi
##ena
odpre
oddel
brezplačno
##ovem
smučar
spra
##lini
forma
##ženo
strategi
45
klo
##nsk
##uro
Občina
moto
gotovo
##jenih
##mak
kredi
koncer
kazni
njihova
##djetje
##plek
roman
metrov
preki
medse
##desetih
zob
statisti
Koro
glasov
mnenju
36
the
##metno
Par
odve
poslovnih
pogodbo
cena
##rilo
##rnik
stopnje
Brez
duše
Samo
##viden
četrtek
dogodek
profesiona
poslovanja
glob
ljubezen
dobra
tip
poi
prebivalcev
##stom
šteje
##čejo
Rusi
sMo
nalož
vsake
izhodi
##vam
milijona
večer
sporočila
sloven
straneh
##rate
vošči
odme
šlo
hotel
njegovega
popula
odvisno
dobrih
##tine
razno
odzi
##žiti
funkciona
izdaja
sce
izzi
morala
obenem
##rbi
##juje
nedo
rekla
notranjo
malce
tedna
odprt
kratko
črpal
##AR
dro
primerna
stanovanj
##AS
##dnost
##es
navduše
##pec
prijatelji
ekipa
koma
odpo
plačila
ceste
odpadkov
uveljavlja
shranje
najnove
##dalje
varov
##znega
rasti
stoji
razmer
bolečine
##redoto
programu
prepove
srečo
poste
prednosti
sporočilo
##bur
sprejme
seku
slike
Novi
živ
sDe
sJa
##nikom
##larjev
soli
proizvo
samostoj
##nimo
knjigo
turni
prejel
mnogi
jedi
##demi
povezave
##ken
##rko
starejši
##cebo
##gova
časo
potrebna
##jočih
##malno
##biti
uporabnikom
komplek
naravo
##jer
naprav
##gram
##alov
##činek
blizu
##ganja
smrt
naravi
nape
Dob
virov
čo
##titi
domače
strank
odstotka
besedilo
obravnava
Ministr
pomembne
študij
vpliv
odbora
prejme
##mno
uprave
Potem
člen
izobraževal
##tost
sLjubljana
##čje
uskla
reprezentan
Mariboru
dnevni
načrt
obisk
obliko
zgoraj
potrebujete
##alcev
Sto
varno
kame
korak
napisa
izključno
kraje
nego
##žev
optimi
mikro
neodvi
takšne
##cien
skladi
konferen
prosi
kontro
včeraj
195
vožnjo
takšnih
individu
dnevno
svetovne
maščob
koz
Cerk
žensk
uradno
ip
vsakodne
pošlje
model
Torej
noč
##ana
##letno
Gor
##sod
Gore
tehnologije
načrtu
ustav
žr
cesta
Zakaj
##ES
##čaj
okolj
speciali
tekme
##rin
##tvo
določen
##žujejo
javnost
kisli
Zelo
postavlja
resnici
družina
##lete
Novo
vojni
ustreza
obvla
igro
predstavili
elektronski
zdravljenja
projekti
odse
##volu
likov
lastno
##ft
umetnost
brska
dobila
##ščajo
inštitu
januarja
zadeve
aktivnost
značil
skupnost
prostorih
hitrej
##lik
trajnost
##ramo
##šnih
najdemo
razlog
obsega
pripravo
##dago
slika
verja
izmenja
najbolje
potekala
Ured
upravljanje
##gan
izven
republi
poslovne
##lnost
##od
##reti
poslan
družini
hrb
##sednik
##zah
vzdu
moških
zaslo
vaša
slov
zavze
Bra
##žjih
ori
marke
dalje
starejših
diplo
Pr
navz
naslovom
bolezen
sovra
##tniki
##jutraj
osredoto
##logije
varstva
učenci
karie
oglaše
##plja
prote
##pel
bodi
rezultate
predstavitev
Google
takšno
Zna
##ternati
ogromno
##tika
prodaj
katera
##vobo
obto
##čajo
##ranih
učitelji
##tion
izpostavi
zadr
ipd
##lnici
##IN
podpr
svetovnega
##giba
##šajo
sMed
##sja
bre
povezavi
Cen
Pra
komisije
##cisti
temo
migra
plačilo
učinek
izlo
uveljavi
njene
rastli
uporabite
nekoč
dokaza
pravno
2006
Leto
povezov
smislu
Zdaj
##gh
##rnice
ha
##šanju
posameznika
kakšna
obstajajo
vašem
kru
pija
uspeh
##enkrat
neva
##skr
##rki
odrasli
##wa
##šnjih
stroški
ca
##rk
##lk
širše
rela
##ščena
primeren
negati
odločitve
izziv
pozornost
videli
dodatne
najpogoste
##žal
kulturo
Ena
komenta
hiša
uved
##ld
zaje
stanja
meje
čiščenje
listi
upoko
##LO
delni
glasbo
##port
besed
četrt
narediti
vino
Največ
cerkev
##ovec
zbor
trenin
##rnem
zajema
sodeluje
##lada
poobla
dostopa
sklepa
naravnih
##ščanja
##vadi
Nekateri
takih
najlep
povpra
##TV
##torju
sistemu
olajša
mnenje
problemati
prenos
prišla
##ker
privla
##dnim
##ziji
Por
prista
tere
prebere
doslej
defi
##škimi
##ir
##bela
zapusti
položaj
Tur
žar
energet
vloge
kompo
vsej
prireditev
Mladi
rezultat
##fu
##mena
živo
popravi
plat
prene
trgovine
##OR
knjig
##lcem
dobe
komisija
pripomoč
bele
organizacij
posledice
##jekt
##peljali
kana
##hodne
sredo
Bre
vroči
ogledate
sej
zaupa
kovi
profi
##logo
##vnim
bru
##čim
izobraz
pravila
kajti
##ron
omrežja
##pev
kamp
jeziku
gospodi
preiska
prih
##vnimi
##qu
sindi
##metu
Skup
pristo
vojno
aka
počne
poudarja
slabe
izpostavlje
##teg
spomni
usmeri
##snik
##bnih
##rekti
cvet
Itali
The
prejeli
sposobnosti
vpisa
zares
strokovnjaki
priporoči
lase
veseli
dih
Morda
nastop
noči
##kteri
filozo
živijo
petih
hri
Zdrav
udeležencev
Obi
temi
študija
sVse
191
uporabnika
kosi
tujih
poročilo
Sam
veri
##ttp
opredeli
##čemo
mesecu
##reja
##kta
##mah
##san
spletna
ekolo
mot
koncep
prodajo
športnih
preso
##tik
avstri
omeni
nev
posamezne
##lcu
oblika
dolži
dosež
tehnolo
pas
Tru
imena
veljajo
poto
mene
izkušnjo
tehnologijo
vrednote
časom
##ty
lokalnih
razgla
predmet
zau
olimpi
izre
izbri
##kati
veseljem
največjih
člana
prinese
##tnimi
ES
pristop
mali
mate
lepe
izdelka
32
##žilo
zemlje
##šujejo
obdobja
http
##alec
prijatelj
centru
recep
##selno
##starej
izdelavo
mehani
predloži
februarja
##tec
izboljšanje
hišo
##lti
vplivajo
s3
delovnem
Sveta
srečanje
pohi
oča
vna
samode
besedah
Ke
odpira
##šala
div
##šar
odločil
poročila
doživlja
##renci
številke
skrb
mnenja
##stično
##ževanje
celovi
preverja
specifi
obremeni
opisa
vre
pozneje
objavlja
ostalo
predstavniki
##dnimi
##duje
ocenje
Spre
pravlji
##jenje
##bljen
##nejšo
izbiro
podatkih
barvi
uje
trga
primerov
trgovini
gimna
##lah
delovni
##rica
začelo
moja
dreve
193
SI
##rjeno
navaja
Splo
tekmovanja
oblasti
kme
upoštev
##mur
##litve
33
slovenska
maščo
samoza
bolnišni
zdravil
najti
socialne
dekle
##lani
kmetij
nagrade
hitreje
urah
komuna
visoke
##cro
##jnega
odnos
telefon
državo
tekmi
zavarovanje
##dniki
priro
##rnim
znan
stoletju
bateri
članice
masa
TV
starejše
Dan
vožnje
##čeva
sKer
potekal
enote
pridobitev
Jaz
zjutraj
Nekaj
zelenja
organizacija
Stro
registra
##dnosti
##dnji
razmerja
Šen
poseben
znano
zunanji
parlamenta
spominja
naravno
##zite
koncen
vpo
imenuje
ostane
fotografije
##tike
osnovno
funkcije
soci
materialov
projektu
želje
zlora
kap
##financi
rekre
objektov
iger
gost
sDru
##deset
##dia
vemo
##plom
obišče
osve
izpolnju
##turo
##RS
##neje
dolgoro
##fici
oblikovanje
zapi
občasno
domačih
sporočil
##toli
trdi
mr
at
preu
prihodnost
oma
##delj
##presi
Mer
ljudem
Pov
dvakrat
pokaže
edini
nalog
ponujajo
vzame
dodaja
ekipe
##ris
pravne
točno
kolekti
vzdrževanje
klik
službo
njena
brezpo
##rjena
evropske
ukrepov
gum
##zij
krvi
tovo
razmere
Ur
lese
pogoste
udeleženci
##LA
svoja
kopi
varstvu
gasil
Ptu
delovne
vidika
##hom
pedago
noh
##lili
zmanjšanje
dinami
zmagov
stopnjo
podeže
Gr
skli
Sicer
kamor
Janez
neke
številni
neverje
##ščite
miru
pridob
Evropskega
##čevanju
imaš
dnevu
sklopu
končni
sTudi
prometa
predstavil
dohod
Sko
##ročij
##DV
moji
Facebo
##tske
javnem
manjka
##mpi
testi
njenih
##govi
konstru
##nilo
kluba
letom
##TI
področij
##ani
ponovi
##zom
avtomobila
01
videz
imenu
osnovne
kilometrov
mednarodnih
##ormo
dlje
##jami
soro
knjigi
bal
odlična
osa
meseca
##kola
odi
##kimi
2004
bodisi
recimo
opravljanje
moremo
izvajajo
samega
razpisa
pogaja
##deljek
spomeni
##kcija
##šem
##MS
simp
lastne
zmago
##anka
##oval
zagotavljajo
sistemov
##ženj
delajo
naredili
##OP
prilaga
sofinanci
olje
morejo
##stnik
oblju
Njih
Foto
drži
##ry
odgovornosti
nepravi
##njene
smer
zapored
izroči
kad
predela
zača
razliko
točka
daja
##snosti
življenjsko
preosta
Rad
vpis
pošti
upoštevati
široko
PR
##kat
oba
##ll
pokraji
neiz
odso
##čanja
delavnice
povra
##čko
prodaje
seji
strokovnih
zvečer
razdeli
pravijo
##sek
##mir
kontak
začetni
Ljubljane
župa
gostov
##čenja
utru
br
zahtevo
unije
spomin
##kujemo
potrdi
##mos
višji
dosegli
dovoljenja
##rjen
željo
Gospo
zanj
povezavo
obso
aku
zavrni
predpisa
kaza
podpisa
prostorov
agencija
razreda
načine
poj
izpu
škodo
restav
##dnja
posebnega
velikega
Gro
Moj
vnaprej
vrat
dodatnih
gibanja
filma
take
pano
dolge
Jezu
povze
luk
krščan
oprema
##šna
skupni
nekako
##cipli
##lus
presto
sRe
##rgani
Vele
njegovem
##tuje
izred
sezoni
osvet
vstopi
funkcijo
kraji
Knji
srca
Peter
sPoleg
##lniki
one
naved
2005
Ča
##dio
##beti
zakonom
treni
##teljem
dolga
boj
obletni
prvenstva
dolg
ponedeljek
##dovanje
##dnaro
praznov
##snem
delno
prebra
ljudmi
tistim
##lišč
eviden
##cijska
##solu
Bla
Dom
lov
ope
##nita
uporabljate
manjših
##anji
obiskovalcev
Nemčiji
zanimive
počitnice
napoved
400
sporočili
pacien
Tam
##žju
##leh
pripravljeni
Hu
najmla
prenese
veso
ozem
raven
mnogih
prireditve
športne
##hka
skladno
##voje
tekmo
odličen
opaz
##svet
albu
ideje
posebnih
zraka
neneh
##vin
njihovega
obda
lokalne
našim
zdravstvene
##lišču
zagotoviti
tran
odpravlja
stalno
doseči
Zo
##tski
poče
Pove
##timo
povečanje
neda
ov
sezone
popla
##dec
nadaljuje
poz
##pisom
kraju
srečanja
mednarodno
##zmu
sMa
poškodova
naravne
reči
nekje
##slavi
Zgod
strah
spravi
dal
##sak
odstranje
uso
##stične
izbor
društev
številu
odločila
kva
zaj
naloga
dvaj
##rejo
parti
registri
raka
nadgra
sodelujejo
organ
naročilo
Celje
zveza
zne
pli
predpisi
##kal
##kt
04
povezane
hru
vozilo
veza
preživlja
gledal
vpraša
##tura
##torjem
##dejo
##OL
našte
čimer
aplikacije
pogovarja
najstarej
##bnik
zniža
različni
samostojno
kraja
študentov
šel
organizaciji
##cha
nastala
koncentra
sedež
besedo
##šu
potrebne
##PS
##peljal
svetovnem
##lil
prekr
##jmo
lestvi
praksi
Ši
povezana
vabi
nogomet
kulturno
ponavadi
izbiri
druža
sŽe
premaga
preba
vele
##plje
##hodom
dolarjev
lastnik
odgovornost
Nato
Koper
Tra
pomembnih
prejema
poime
odre
načrta
opravil
pregleda
vprašanj
##ts
##stavek
vzgoji
##cam
minima
zakoni
publi
ureditev
znanosti
nakupu
##valci
zdravo
Mis
##sh
iskanje
sprejel
##gina
vidimo
##par
medijev
reševanje
najraz
nenava
občinskega
kreati
##tično
restavra
Ponu
tki
politične
Včasih
stanju
četrti
Ap
##ščene
zoper
Izo
priprave
##žek
##šnega
generacije
Slovenci
dosegel
izgleda
nekdanje
pridela
središče
##ET
Win
##kazi
priva
previ
Predvsem
drago
Res
prevla
gospodinj
pogre
notranje
tekmovanje
Euro
čre
razmerje
ceni
osebi
vita
gale
Takrat
skrivnost
Pripo
materiala
##pendi
količino
huma
finančnih
prenaša
pripoved
##alu
inženi
uporabljali
poškodbe
uradni
Gu
##rimo
foru
##nev
lasti
sTako
Svet
nez
želel
poklica
avtoce
tovar
izte
koži
New
zunanje
kaze
zaznam
redu
38
prevoz
uporabnike
##ard
sliko
##tnika
##fer
##dah
##gajo
##tite
##zer
izvedbe
niče
njeni
oblik
hormo
prines
34
##bne
trije
minister
##lniku
Najprej
uspešni
magi
##tona
olja
gore
priporoč
##brž
and
Jugo
tistega
Tele
predvaja
moške
torek
potrebujemo
ameriški
velikokrat
##membno
smuči
##lij
devet
##žjo
1000
obnovi
##tudi
najboljša
stik
150
##doval
dosto
zavarovanja
osnovnih
##kanje
ran
alternati
poroč
##gal
ciljev
##valju
06
Pahor
finančno
##čbe
parkiri
nizko
Podjetje
tista
rada
gozd
Zago
Pos
ones
varu
##rnimi
08
peš
zbora
odpa
##logija
trav
pozornosti
##bam
ostala
novice
sodelovali
najboljšo
pogojih
dosti
odob
raste
##alnem
dekli
tednu
dogodka
boži
Slovenske
##vanj
tema
programe
ned
For
tur
Ivan
##iha
najrazlične
besedila
##skon
kozmeti
srce
##sila
zdravstvenih
zahtevajo
odgovarja
podjetjem
zdravilo
plošči
zaposleni
192
Večina
##son
baze
evropski
##ritev
levi
okrepi
piškotke
Wi
##10
imenom
spada
telesne
zastop
##ujete
črno
##logijo
eks
vrne
simpto
prebivalstva
ume
##jšo
organizacijo
obr
##zadnje
združuje
člane
zavoda
##tifika
razve
morju
teni
imu
premalo
Dol
tja
rekor
Toma
Takš
##vid
Dela
##igra
starih
zapu
razo
rah
##ravno
aler
##KA
meta
##teh
barv
tabo
hitrosti
Mur
##nen
revolu
meja
naslova
ša
##kcijo
##ou
najka
količine
nju
avtomobilov
spletnem
##bilnost
##lice
polj
krog
ponavlja
hitrost
##BA
dokaj
prvenstvu
dobrega
##jal
vaje
Delo
##mite
07
Son
##tsko
volitvah
Mednaro
priprav
izposo
orodje
nasprotju
dato
odpravili
Pogo
dodatek
##OV
##skemu
obča
točki
SDS
##žajo
##EM
vzrok
##jujejo
uživa
spremembo
vodil
##goče
OŠ
cerkvi
obna
sPa
sprosti
krogu
začasno
Stra
Duna
##zozem
##chi
zvi
rastlin
praviloma
##bre
pale
##mbala
reali
napake
mojem
znana
rekel
poslovni
posameznik
##vrsti
strokovne
načinu
Dne
##jst
Celo
prejšnji
upravljanja
obiskov
učinkov
##ščem
razlike
##upan
##nij
izgi
##torje
anke
glavo
##močne
vizu
sMi
Ple
SP
##računa
##nitve
##bljeno
tan
inova
odbor
Madžar
dnevi
nate
niste
##rtma
Slovenski
San
evropskega
jaj
noge
Bil
sSo
##US
vključujejo
verjame
računalnik
Univerze
povzročajo
štipendi
sur
napisal
kos
poslovno
ugotovili
ekonomi
luči
uteme
orodja
##nesek
##tis
pogu
gibanje
družbenih
stavbe
zape
osebnost
onesna
boljšo
##dij
##ting
razumevanje
##ON
zavar
mislim
##nka
vodenje
preven
sliši
opravljajo
Italija
oddaja
fazi
tedaj
zaveza
prakse
Števi
Svetov
gospodarske
električne
##ljakovi
##tok
##gah
demokrati
denimo
terja
##vse
teže
pokopa
##ad
##gani
samem
lastnih
prijetno
učinkovite
razlaga
špan
##zar
sekun
največja
pridejo
##šega
predlo
##tur
namera
Aj
družbeno
prvenstvo
##delek
okolici
vzdušje
kralje
sveti
vloži
dejanja
programi
smiselno
Poli
takšna
politično
Mate
dokumentov
inšpek
politiko
zaposlov
značilnosti
37
juna
tiskov
Kranj
dojen
priznanje
mednarodni
današnji
ponudba
polje
prez
agencije
državne
pti
nikakor
nor
urba
oddajo
2003
zasnova
vodstvom
pomagali
##pati
embala
##škodni
Šo
šta
##pež
##rjenja
##janja
##tacije
marketin
tretjega
učenje
##pina
napred
dese
Gi
mlajši
fanta
sobi
lokalni
izberete
površine
prometu
##dobno
navduši
nekdaj
barvo
banke
US
##ks
prehod
hudo
##čnemu
op
mari
sodišču
##rata
koledar
En
##šan
##DP
##ws
potekalo
##OM
##stični
jam
znamenitosti
##čaja
velikost
časih
opredelje
##rjeni
sRaz
##bio
We
Naro
volitve
##bov
##tične
potovanja
poe
nobenih
pobo
mir
takega
vodni
novim
Ex
regiona
edinstve
##danjo
posameznikov
prostem
##gradnjo
nesreč
##ljivega
izvajanja
zdravstveno
##pol
nobene
rezultati
bistvu
##njuje
zanim
kroni
športa
odstavek
rastline
begu
redko
vztra
##stal
razstave
##ščamo
Bog
##skom
tradicijo
##kula
dvorani
Ch
##teli
raznih
Evropski
drob
##rice
##stavljeni
količina
Lon
zadnja
ostal
Jese
usta
iščejo
poskuša
priporočamo
poznamo
55
preneha
188
sodobne
aktivi
Ana
tuj
državnih
psihi
utr
podne
točko
far
vlogi
##dano
##čnika
profeso
##ljujejo
projekte
kulturnih
številnimi
nasme
##kratka
##stina
vami
obisku
##tacijo
##gona
42
vero
##stniki
03
poravna
klini
gospodarstva
oblačila
kamni
sabo
05
želim
naredil
##zdravi
zapis
predmetov
##bna
mediji
##ssi
izdajo
delavci
debe
podpore
zaposlitve
nama
##lino
##čja
##nitvi
izbrali
povečuje
zakonu
košar
delih
demokra
43
določena
dimen
resno
ble
beljakovi
pokazala
najkasneje
Špa
težje
prostore
oceno
deležni
pripravljen
##dre
zastopa
Skupaj
učinke
##we
tabli
48
povezanih
plošča
določbe
ukrepe
minera
natančne
tor
poglav
kadarkoli
##ljenju
nobenega
rezer
kriv
rev
težo
učinkovitost
omejitev
Ime
gospodarskih
piškotkov
komaj
pojavijo
tih
mm
Poseb
neskon
našel
##stnem
ana
reda
sprejeti
vina
spremenje
gradnjo
##snost
kriteri
manjša
seznamu
socialnih
##štru
videl
##joča
dobite
Vedno
##žnika
vendarle
odten
hoče
kategoriji
odškodni
##stavljene
naravna
športno
##bilnosti
podobne
dobijo
##nan
novina
Sred
##teljica
kadrov
##linari
##lnikov
delovanju
terapi
mobilnih
prislu
začetkom
usposo
zakonoda
zdravnik
##stribu
##tični
##neta
znesek
učencev
##rjetno
##zaciji
sreče
sJe
uvaja
pravil
členu
vodijo
gradiva
središču
75
pričakuje
##turi
Men
##TE
navadno
edina
načina
nemški
človekovih
##polnje
plošče
nesreče
trenutek
sindika
matemati
strokovni
kratkim
har
prizori
status
Bru
Teh
##ceni
podobo
nekdanji
sestav
postali
zavr
sSlove
kor
vrača
##zil
2001
##tkih
gasi
zanimivih
preberete
2019
izraču
Zah
ročno
deko
pravnih
festival
##et
finančne
zanje
zraven
2002
bogato
začnejo
prave
##beri
##ševanja
tehnike
občinski
sŠe
obu
lesa
obole
maščobe
opazov
##vic
jed
pozitivno
žrtev
sveže
Man
izdelov
Jugoslavi
čreve
koor
##zel
nemo
Polj
Ale
neki
##novr
pohvali
##čanju
tržni
defini
škode
poskrbi
Sobo
obdelavo
park
ekipo
členom
##nutno
Kre
računovo
2020
agre
Ljudje
proračuna
kvalifika
vzgoje
##tete
osnovni
Potre
ponudnik
dogajanje
gradu
obiskovalci
mnoge
njenega
hiš
info
snov
tveganja
manda
##ferenci
morje
ustvarjanje
samodejno
izgubi
odz
izvajanju
spodaj
vro
revizi
##tivne
tren
letošnjem
rezerva
##ide
stara
datum
##ban
##JA
Ban
takšen
predhod
Micro
Hvala
stopnja
primerne
podaljša
nekega
korist
bakteri
lepi
zanimiv
Slovenska
##delo
##vaj
kupec
objekta
##18
##gije
omenja
ogledali
garan
DDV
zahod
Bistri
mednarodne
Evropska
##teno
##tivni
odvisna
prehi
šolskem
nižje
potovanje
kle
enak
koali
39
zabele
celotne
##vju
zažele
Kam
domovi
ključnih
##nke
odigra
vedo
akcije
kandidat
ilu
##tko
##rski
različna
##stavljeno
trebu
obrni
##njske
žalost
Tokrat
samou
celotnega
koti
nadzora
##panje
jutri
vedeti
sezono
razloga
ogra
obmo
pomembni
tvoje
zrak
##čanov
rdeče
spi
sposobnost
onemogo
gri
sprejeli
nudijo
rim
tik
sle
bistve
spodbudi
viru
povsod
olj
Zače
modela
tveganje
Sem
plošč
določeni
pogovor
drugačen
pooblasti
zadeva
opravila
igralci
material
##mbe
robu
izvedbi
hladi
##valne
ponudbi
Her
odpor
tisk
##lila
končal
##alca
univerza
rezultatov
vztraj
ukrepi
enake
prehra
zmanjšuje
##voj
##anjo
##tovanje
izog
območjih
plač
##dija
opravili
daljši
dobo
##dana
trener
##koč
polju
##rniki
izvedli
dodeli
Zakon
##gro
posamezniki
znani
##JE
strokovnjakov
dobavi
##rjene
65
najljub
čude
##njski
skupne
##dravi
RTV
##ano
članic
##nina
prisi
veste
šolah
cilja
utri
desni
sNi
Japo
Afri
politiki
##nca
##javi
Con
##jšanje
razredu
predloge
Per
##tnikov
organov
sBo
usmerja
44
nemogo
naklju
zavarovalni
namestitev
izraz
živil
znak
peti
ponov
prispevek
Hkrati
Zavo
posebna
Mno
značilno
##šnik
telesno
povezani
##like
dogodke
fizično
Var
naročilu
najbrž
##les
##vci
založ
monta
tipa
kulinari
##peten
enot
tipi
modro
udeležili
skrbno
Organi
dolgotraj
spremembah
prične
pleza
domne
roki
Tukaj
stekle
mami
vle
##rak
dovoljenje
zasebnosti
legen
učenja
Saj
šib
zajtr
mogel
združenja
državno
katoli
uporabiti
britan
##ženju
Slovencev
hrana
začu
določenem
ribi
##čajno
naravni
prejela
predpis
vzne
prt
slik
##nejšega
glu
jugo
##24
raznovr
##vica
moram
ustrezne
gradnje
spla
##valno
vreč
navodila
pomisli
političnih
želji
##niški
Br
Name
##datki
##rona
majhne
kratkem
razlika
objave
zadovoljni
##rit
obraču
direktorja
##dbu
šolskega
idej
##letne
##dy
povo
Mogoče
##bla
instru
discipli
diag
preživi
##blikov
zgodovina
žo
Primor
##čitve
posodobi
notranji
##čij
##lije
barva
##danja
##lnikom
##mentira
pušča
vlak
Italiji
slikar
ostan
zopet
##valnih
normalno
elementov
sVa
šestih
09
Medtem
##klop
nanašajo
##žejo
višine
globoko
##danjih
s4
##OD
napravo
##valec
##zec
Eno
190
dolgi
avtomati
osebnega
distribu
tede
##torica
igralcev
99
IP
razloži
sile
pesem
pogodba
slede
znanih
igralec
pisarni
am
predstavila
povedala
odločbe
ukvarjajo
čar
##peli
Dr
sola
čakajo
kulturni
strokovnega
rekli
sestan
##čk
nazadnje
zali
189
regu
čase
certifika
načinov
razpolož
raziskav
zalo
največkrat
mojih
pridobiti
poslovanje
misel
zagotov
medseboj
##dalj
roma
počutje
zgodb
povezuje
##žnem
obele
stavb
republike
sLeta
Boga
modelov
##mentu
usposabljanja
svetovnih
##žjem
##gija
##pno
spusti
namenjeni
##bljena
razstavi
tol
partnerji
prevzem
mag
kak
fotografij
knjižnice
gar
##čnice
tole
##siti
multi
##vare
##žanje
narašča
##rsko
##PP
pisno
Savi
ameriških
prtlja
##lite
referendu
letošnjega
lastnost
##topi
sSi
zemljišča
krajši
##nk
povprečju
spodnji
trgovino
istem
inštru
odrasle
prise
zanimiva
filozofi
tekm
podobnih
svetlobe
glavnem
mote
##menti
skupnega
osebam
##genera
Obe
##rske
pripelje
krajih
ekspe
##kala
pretira
marsika
delovna
600
pomla
epi
jeseni
letnega
arti
iskanju
harmo
delati
združi
##lizira
polja
dodal
znanost
Nor
destina
pridobili
##spekti
termi
NA
Ter
zagotavljanje
ozave
Žal
nastanek
šla
vzo
##žati
kršitev
spleta
##vze
prosti
Glas
sklad
top
Obči
spoznali
razdelje
Tek
pope
oglji
Bel
porta
sestavine
Občini
teoreti
##jenja
Razi
46
poiska
ministrstvo
asi
eta
Avto
Car
##žbi
Sled
##stojni
deve
občinske
##snim
sredstvo
župana
##bljajo
##vana
##pise
47
sekre
Brita
koža
pojas
as
##kam
Microso
obrne
namenjene
##čkom
kompeten
naroč
sektorju
zre
##kajo
razgle
članek
pohodni
##dišče
cilje
pravočasno
Sledi
poleti
elektronske
odprta
rahlo
komer
##tnice
plesa
ničesar
##30
zemelj
Sedaj
sociali
bogate
Osnov
sestavin
zmogljivosti
obnov
rokah
postavili
iP
##znam
turizma
računovod
uslu
pomagal
pozdravi
proizvodnjo
sistemom
ambi
##trih
pobudo
predstavitve
nahajajo
poslovnega
Ajdov
muzej
##metri
nekakš
Druga
##mladi
kakovostno
lastniki
tehnične
##rur
##bljene
pripove
elega
##nete
san
konta
nastaja
Londo
##lke
globi
moškega
sNo
##rekven
dogodki
objekt
plačati
##deh
zavarova
pada
vsebina
##najst
kaz
metode
##jenega
povi
predhodno
popoldne
Facebook
njihovem
vašim
sistemi
glavno
koru
##čah
alkohola
kg
##dami
glavnih
oddaji
intera
spopa
sreb
obdelu
stališča
biv
mara
Dobro
človeku
celoten
službi
kola
močan
motiva
opraviti
vzdrž
##EL
##šite
izu
Mestne
šolsko
49
##ščenih
##živet
evropsko
tople
pravni
telova
Vsekakor
##tero
boji
##sije
VI
nežele
prekli
sZaradi
govorimo
žensko
Hrvaškem
zakonodajo
Letos
podrobnosti
pozdrav
##stavitev
študije
povr
družbene
polovici
zaslon
##dju
telefona
##tari
dosegla
taka
Drugi
maksi
Boru
##nevmati
vike
Naša
poimenov
tiče
##čnostjo
Rde
sČeprav
On
die
trži
##klopi
Bal
##lagod
najhi
Otroci
##bilo
sladkorja
Ministrstvo
zbirke
ohranjanje
temperature
Inš
služi
novosti
##njak
dvori
tesno
akcijo
Windo
dokončno
želo
tečaj
##RI
gozdov
mani
Avstriji
najpomembnejših
konf
postopkov
naložbe
dejstva
sprejela
oddaje
##kratni
ustni
prehrano
opozori
fotograf
koncert
paket
nag
tleh
datote
Ču
modu
iskre
shrani
scena
besedilu
potekajo
ministrstva
odlične
temati
ravnanja
##ranjem
Ver
##han
otroki
motorja
največjo
vožnji
##lnic
##dovanja
navija
nenehno
Avstra
sobe
morja
zaključku
##tskih
odprto
vodovo
nastan
Inter
problemov
predpisov
Preše
upravičen
##bran
sodobnih
ekipi
Vsako
zadol
izstopa
povezano
Pari
posameznega
stopni
##stvarja
dobimo
naredila
Vrh
Bor
186
otroku
vožnja
bližnji
ameriške
spremlje
kakšni
Či
prevzame
razmerah
sprva
presega
pal
##vnik
naročil
obdelave
este
zbrali
interneta
poudaril
visokošol
platfor
Yor
nista
nogometa
##tičnih
dejanje
avtomat
Igra
ris
pomenu
Len
sLa
tehnologij
ske
takšnega
proto
Pomembno
##jana
Marja
izgubo
volitev
redni
radio
rit
##liji
cel
odprli
znaj
pravna
vojske
umrl
Kristu
najvišje
Gorica
##bljenih
lokalno
ščiti
argu
dokument
lah
napad
stanovanja
02
vrnil
produkti
##tska
uki
predhodni
Zla
##oo
oni
Or
enim
delavec
reli
sodeloval
sanja
črni
cesar
politika
##rjenih
nadvse
120
vedeli
rabi
akademi
##OB
##jšega
##njenje
##GD
rezervi
uporabimo
mono
Smo
Stan
tehnologija
loč
darilo
##znik
avtorjev
Škof
metodo
Eden
##mm
učitelj
potrdilo
druženje
maribor
škof
orke
pomagati
pres
##ya
Vla
IN
glasbene
meji
dijaki
##rajte
prikaže
izdelave
##tes
glasbeno
naslednjem
kupcev
##raje
IS
trgovina
branje
##klep
sUpora
ravnanje
socialnega
##čevi
moraš
čustve
bivanja
Program
celic
odstop
vzhod
izbire
nevarnosti
##ziti
takšni
odraslih
postanejo
migran
splošne
naslovu
nevarnost
dobrodo
kategorije
Nad
popoldan
letnik
Windows
Republiki
procesu
##mil
proizvodnje
##leta
nivoju
dolini
desetih
##žič
prihrani
##šeno
ideja
hvale
SA
Prva
##dli
relativno
poletje
koordina
vari
Au
##rn
izvrši
##žice
Namen
mladostni
zda
##šenje
licen
finančni
šli
morebitne
doseg
razda
##vomno
poglo
nasilja
fakulteti
Eko
sGlede
odvija
apartma
vpogled
osnova
obstoj
prijateljev
vodila
oblast
razumeti
tednih
nadaljevanje
kandidatov
gospodarstvo
medijih
psa
postavitev
preprečuje
Andrej
podjetjih
dajejo
stopnji
obvestila
##stavno
41
usklaje
nega
dogodku
tehnično
družin
##stičnih
zaposlitev
##ffi
sol
blagovne
premoženja
ohranje
##mili
odziv
večjega
jemlje
##vnica
##peti
Vsaka
pnevmati
slabše
izpit
##njenih
Loka
nimam
Bolj
proizvajalcev
##taj
otroške
prevzema
kratek
najmočne
regije
umak
mama
narobe
nimamo
St
Posa
##tična
kombini
okna
kapitala
##NA
okoliščine
64
prebivalci
uporabniku
pripravila
prepričan
posebnimi
spremeniti
magne
pritr
sPrav
rojstni
Komisija
razoča
požar
hude
dogajanja
obvezno
srečanju
odvze
svetovanje
ponoči
Združenih
##zirani
nagovo
labora
mednarodnega
skriva
##bija
širši
glasbenih
komunici
poslab
zadnjega
##dam
poeno
razstavo
napolni
postalo
obračuna
real
pričakujemo
##kdo
starost
festivala
odlaga
prispeva
popestri
##ministra
neprije
zgodaj
##wer
motivi
delal
izpa
preči
Zanimi
##name
tekmovanju
Društvo
marsikaj
regiji
čebe
AM
naziv
omrežje
krepitev
dopol
krize
tistem
podatek
najvišji
##TO
prijavo
kombinaciji
obeta
origina
živah
celice
##mon
alu
plju
vadbe
##blo
Verjetno
nekoga
tero
##bniki
potrebi
prepričani
vikend
višino
oblikovanju
##slovan
izje
predloga
nakupov
pojavljajo
najbli
##mentov
tehničnih
odnosov
##sija
posveča
95
stolp
Kdo
##rar
posoji
sKaj
##nuje
procesa
Odli
razpolo
ano
glasbeni
##ligen
narodov
članica
naklo
osvojil
Kla
zemljišč
nakupa
obdr
##ževanja
odločbo
kontek
hudi
udobje
##lico
izpelja
Trenutno
napravi
##jame
živeti
250
domiš
uporabili
##koma
napak
poje
razlikujejo
Jezus
##kto
povedati
poišče
Kadar
posledic
sektorja
kongre
prevzel
omenjenih
##ročilo
Hrvaške
prekri
##minar
##žemo
##šeni
izkušnjami
zapisal
Andro
52
odločite
podoben
51
zdravstvenega
notranjosti
biolo
propa
selek
vrtu
uskladi
uda
##ero
ih
brani
##mes
##tjem
Veliki
dodaten
terapev
zamu
objavo
Nemčija
poceni
duh
56
dolžan
diplom
zakonodaje
##ružni
Naše
gospodarsko
izi
naročnik
nespo
predse
vedel
lete
izola
neuspe
oblikovanja
STA
pun
prebivali
##intere
##ljenega
tremi
##stala
##sve
sou
57
zavezan
Šta
učinkovitosti
postaje
konferenci
usposabljanje
bere
izplača
lepa
mreže
##AL
Pot
komunisti
skuša
preneh
začenja
družb
sSa
okus
orožja
prit
Uredbe
letošnji
hotela
fizične
naloži
kmetijskih
različico
Projekt
farma
##TC
želela
površin
gosto
potreben
arhe
nanj
1991
##kove
mogli
54
##onal
vključe
1999
cestah
šolskih
idejo
parku
udeležbo
studi
seznama
milijarde
##ing
potrebni
vojna
jedr
elegan
pripelja
Ptuj
osamos
##ane
##gib
odstavku
##znem
česti
##čeh
odkrili
drugje
kontra
podobna
mišice
vabimo
pala
odnose
omejitve
##bina
avtorja
filmov
sestavljajo
odprtih
diplomi
pojav
zdr
kirur
zamisli
telefonsko
nasto
prima
mobilni
##jamo
topli
januar
##tivnih
razum
namenjeno
serije
teče
nik
##šič
madžar
Kultu
visoki
srb
udobno
edino
peči
izpolnjuje
##limo
##valcev
Srbi
snem
izbrati
ameriškega
mesece
aplikacij
kupiti
kvadra
##tena
Ble
Kana
priporočljivo
##alce
vodenja
ljudeh
##MC
mase
##tneje
mobilne
##IC
igrajo
tožil
sodelavci
navdih
Bene
Udele
strežni
uredbe
mladim
procesov
nemogoče
sosed
##šena
PD
celotni
elektronsko
obseg
##oksi
Medi
800
niko
svojemu
bolnikov
opu
##kalo
Miha
##ff
naprava
funkcij
prehrane
ocene
rob
zlato
vsestra
##jn
##stnim
gradivo
##pon
Triglav
uma
glavi
vidim
dali
nudimo
razsvet
preteklih
poskrbeli
##ght
Fakulte
##mpe
obar
veš
pilo
##cs
krajev
nagrad
potrdila
glavna
zaposlitvi
nadaljnjem
##venci
##SK
izpostavlja
napra
podpred
prof
pogoj
##vencije
obrazec
visoka
sledijo
intelek
##lena
praznik
življenjski
ženskah
motnje
spregovo
pravica
prikazuje
vinogra
##medi
Kamni
bolečina
ZA
glasba
strankam
##spa
zahvalju
znamk
razvese
Rim
nepremičnine
udar
pametni
preprečevanje
nebo
dala
odhod
partnerja
kapital
medsebo
Kle
uživali
inteligen
##poma
zbirka
Slovenskem
domačem
##ranega
##tnica
kartice
##rjeva
parka
##žka
krva
izračuna
neposredni
##lica
vidijo
kan
##DS
razne
ekip
novimi
pošilj
goriva
človeške
obratov
šolski
učinki
gredo
jem
predava
interpre
Elek
##cijskem
zdrave
tamkaj
besedami
##rab
##cioni
nepotre
##pela
tradicionalno
strokovna
##ravnote
identifika
Tro
politični
nevla
položaja
##dnika
izdelu
##rnica
mesečno
napredek
istega
zdravnika
nepremičnin
zbirko
civili
preob
razpolago
skupnih
##ed
m2
kapa
očisti
zgodbi
benci
sVi
spon
tovrstnih
dragoce
##wit
##stanek
Vas
poletnih
sila
sDanes
##nema
prostega
##rca
vzdrževanja
table
boljša
##tip
ogrevanje
administra
##kratno
##snimi
##apa
##vajanje
rečem
dogodkih
šolstvo
turistične
goste
morem
psiholo
reke
našla
šči
svobode
dla
unika
povezan
poškodb
kas
izgube
domišlji
##interesi
##ltra
izrec
majhna
izv
Moja
prijave
vstopa
robo
invalid
nastane
vodstvo
ureditve
potencial
Zavod
podpora
dolžnosti
talen
občino
##bert
##sedno
močnejši
##tino
predpo
papirja
znamko
odpu
zdravni
njenem
kuh
kilogra
navadi
##vel
vadbo
povelj
Nizozem
osebnosti
##ženega
nadaljnje
območij
materiali
brezži
kakšnega
analizo
visokih
višjo
kapitali
sija
kuri
##deja
izboljšati
##EC
Inštitu
##tujejo
prihodnjih
##vcev
##ščinah
razlikuje
tretjem
polovico
##čenega
priteg
začeti
evropskem
pojasnil
184
mojega
seg
dolžni
##soma
dohodni
Njegova
Sin
dobiti
Velenje
##žina
belo
Indi
##jšem
naba
preme
##ktivno
srednji
s5
razpravlja
splošnih
poznajo
obiskali
kanali
drugič
58
##dla
univerze
##komu
lasi
##dnikov
objavil
cest
zasto
preprič
dokazi
človekove
pristani
komercial
Mislim
okolice
majhen
pripravljena
najpogosteje
##žali
Naši
odstopi
nika
kuha
zavod
izčr
daljše
sVo
##letnih
frekven
stranki
reševanja
sprašuje
##snika
koga
oblačil
preple
##stična
rečemo
zdravljenju
navedene
Sv
soglasje
Evropo
kosti
pokazal
fakultete
upoštevanju
hvala
##ling
programom
priznanja
Predsednik
četudi
stališče
mejo
ohi
različno
tekma
zanjo
zunanjih
veselje
pokazali
veljati
eksperi
##letna
rezi
znanj
stroj
enaka
vsakodnevno
sodijo
nedvomno
okvir
salo
nadaljeval
##toro
spodbujanje
znane
ustvari
##terja
občinskih
gledališča
Velika
otrocih
oceni
izkaz
zlahka
187
zate
pripravil
absolu
##ps
porabo
sVsa
##žma
sedanjo
Marko
proizvajalca
turističnih
mednarodnem
višja
nah
direkti
predstave
sodobno
##stali
omeje
lige
Prija
velikim
##gon
##čniki
##ščanju
voznik
##kna
##nino
##ljah
portal
##činkovi
izobraževanju
Grad
##ovalo
vprašal
##kost
sor
kvalitetno
sejem
##wi
obiskovalce
85
dejavnikov
Sch
dolgoročno
Zagre
##ković
##žij
nespre
publika
dopolnje
poraz
majhnih
stanovanje
zahvali
##doben
##kvi
prena
turizem
mirno
omogoči
preverite
minutah
##glejte
##os
pomni
nalogo
Pol
dnem
Obstaja
prihodkov
##elo
orožje
otvo
##staven
##žanja
kabi
težava
univerzite
Priporoča
zasnov
##šitev
nesreči
časopis
fu
aplikacijo
glavne
shranjevanje
signa
posnet
razporedi
##šja
podlaga
vroče
ref
zdravju
sonce
ona
Alek
pomanjkanje
opro
##pam
3D
kolek
##ding
delodajalec
Kakš
priljubljena
zavzema
Koroškem
elementi
obdav
raziskovanje
Oba
portala
neverjetno
##RE
izbranih
storiti
emisi
##stvih
nabira
očeta
pridobil
uspešen
##čimi
dopust
močna
programske
pametnih
intelektu
rekrea
filmu
težavah
Wor
mere
položaju
rav
laboratori
##njsko
končala
is
##VI
pole
infrastrukture
vrhov
družinski
različica
ustanovitvi
priporočam
volje
zadovoljstvo
##12
##čenci
Mati
Jer
škat
taki
vzpostavitev
Nekatere
##din
seje
govorijo
ljubljanski
##risa
začele
festiva
##nez
##ritve
glad
Agen
človeško
##LS
postre
razstav
##simo
gumb
podaja
zaupanja
pogla
##losti
noga
kov
185
levo
##pletna
Fer
Nasled
odpadki
pripada
krvni
uveljavlje
zaščita
nemško
SE
Vese
kontakti
##ny
nevro
analize
časovno
##čmi
revije
pobe
dodatna
Microsoft
igrah
prepoved
mišic
##ševanju
podružni
lon
poslušal
terenu
polna
oblikoval
Rezulta
Seve
gol
posredov
Naš
japo
sproži
zunanjo
vezi
spremljanje
##mne
nezako
pogosteje
intenzivno
otroški
dodelje
fun
sil
uše
samozave
Wil
Najpo
virtu
udeležilo
znamka
šče
##ds
##ščenje
življenjskih
zboru
##zin
obravnavo
vitami
podjetji
UL
nižji
prodaji
senzor
perspekti
vza
##rita
porabi
tednov
glave
naredimo
skorajda
simpa
##gip
posebni
strošek
Ravno
vloga
vroč
zaupanje
viri
pokala
družinske
zaprt
##strop
piškotki
Stre
čudovito
eli
znakov
cenah
Direkti
obrazloži
nepoza
##ret
vzhodu
poteg
Izra
alergi
##kin
1990
##čete
učinkovit
prijavlje
vlož
izpopolnje
##vka
ženski
53
Dar
Nič
##žko
##trom
prepusti
provi
čevlje
202
##ljivostjo
##vca
študenti
obsegu
ostalimi
tekom
energija
boju
Har
osu
drugačno
zdelo
cesto
Doma
##ljica
jadra
korek
intervju
##lost
knjiže
želod
##ot
dopolnju
pok
izgubil
poštni
nemškega
industrije
primerni
regula
Uporablja
miš
malih
srcu
Mla
organa
##jati
potrebnih
sSpo
prejšnjih
potrdil
Canka
spretnosti
mleka
prispevkov
komi
povzročijo
##kcij
kal
##tkom
element
drugačne
znanstveno
dekleta
najpomembnejši
črpalke
##produ
Tisti
naredijo
izhodišče
policisti
nemške
Kočev
parce
obreme
imelo
modeli
##danes
rado
povprečno
BM
urejajo
preživeli
Dole
trene
tehnika
pogledu
Posledi
pogodbi
ponudnika
napi
rabo
pomagamo
zbiranje
kupite
Žele
ukrep
posluša
##jnem
visok
##dujejo
##žb
sSeveda
vpiše
sana
elektra
izbrani
pohod
ponudb
1998
varnostnih
ključne
živimo
podi
glasi
##tiki
Strokov
naf
##imek
polici
dosežke
##lic
osvobo
kazen
bit
manjšo
nastal
polovica
eu
učbe
DZ
hrbte
lede
ulici
##fal
##11
she
najpomembnejše
Ser
naenkrat
##tivnega
##stavili
UV
rečeno
osamosvoji
prometne
gno
Podobno
javna
Člove
profesor
enota
dobesedno
upam
ledvi
pritožbe
Cerkev
nastavitve
navedenih
izvira
moralo
pretežno
projektih
LED
izberite
elektronskih
postavil
izbru
pripadajo
zaved
##nič
Ljubljano
neob
dona
soglasja
vrtec
delavnic
##mljo
##jstvo
možna
ugodno
osrednji
##znice
velikem
rekreati
razlo
konflik
zabavo
raznoliko
Domža
poljub
izlet
refor
##tskega
strategije
##AM
lastnega
letoma
Komisije
izjemo
vsemu
avtomobili
##ange
državnem
##merna
partnerjev
diza
krimina
majhno
Amerike
poškodba
##stimi
Franco
zmeraj
##tugal
paleto
kapaci
zdravniki
družinskih
##števa
skupinah
Viso
smemo
##lko
##ništvo
zakla
Slova
uspeli
komple
sporoča
narava
Olimpi
žena
smejo
letošnje
ustvarjajo
naji
prometnih
fotoapa
čarov
svi
žu
drugačna
izgublja
Franc
beli
najni
der
##jeva
znajo
zvezo
odkrijete
omenjeni
predstavo
odprl
vzpostavlja
##bile
##verjetneje
odsotnosti
zaenkrat
krmi
navedeno
Fil
##leksi
evro
očala
babi
izbrisa
##njskem
zainteresi
Grči
##hone
nasvet
##čevati
Celju
Janeza
ponujamo
telefonu
predstavnik
rja
sliki
optimalno
zadovolji
obrazca
prisluh
koncev
goji
sadja
##terji
uravnote
Luka
##ant
mlajše
prio
posreduje
Študen
prepu
##int
milijard
postopkih
dodatki
At
današnjem
post
potrebovali
kršitve
##stero
sKako
##rnikov
Android
izpusti
sPravi
elemente
izpodbi
težavo
kakšnih
aktivni
pričakujejo
zakonodaja
nadaljevali
gospoda
zdravili
portalu
nastavitev
odmer
uspel
##nolo
##časoma
ugotov
sTi
odpi
starega
otroških
##tacija
depresi
##čnikov
kategorija
postopke
objavljen
Skla
številki
Primo
pridobivanje
utruje
##lski
lokaciji
doline
podpis
##em
sVsi
dodatkov
navzo
izvajati
con
stres
##žnja
stabi
enostaven
zapisali
zvok
dati
poudar
##skanje
določenega
prakso
vzorec
ut
##stja
ustrezni
Oči
jezera
odgovoren
upri
papir
##NO
razvr
kupca
zakonsko
vrtca
##tiko
##denju
##nis
telefonov
##žujemo
##goda
vrha
izka
nadomestila
cca
praksa
59
##nemo
vzorcev
PGD
##strez
seminar
interesov
pravega
optima
izogiba
vpla
Informa
hčer
Rok
gli
Apple
petna
tal
pestro
šolske
##tinu
čokola
##nc
izšla
izdelavi
skrbijo
sodobnega
imata
naje
##ziran
Lin
##čana
stopa
hiter
Festi
problema
razpr
uvrstitev
teku
##žimo
prilagod
##zuje
##stanov
najstni
vodilni
Društva
slabih
suhe
##čas
Bohi
zaplete
pristopi
##voz
mizo
novost
naravnega
okri
ustvarjanja
tretjih
načrtovanje
##šene
Pose
obraza
porabe
uspeha
sredstvi
deloval
nosečnosti
net
dejanj
Mariji
Nove
posamezno
navzdol
##čal
vple
nere
stopinj
reševanju
uporabniško
##dej
davčne
mrežo
NL
moder
kerami
vsakemu
##80
pomeri
finančnega
##letnega
varovanje
Franciji
##hen
pomagala
##strov
odboj
svetil
sprememba
pristojnosti
zdravstveni
##cke
zam
trak
izvajamo
opazili
učence
zabave
700
astro
sloga
arhitektu
kartico
Vlada
predstavitvi
vmes
razse
njemu
sprehod
Hrvaška
učiteljev
duha
pošt
vtis
fasa
Prvo
državami
mestnega
družinsko
sinte
maji
močjo
zavedajo
formu
konference
##šlo
koša
spremljajo
lastnika
Oseb
Šved
##rnika
1945
prehranje
vlog
prenov
##stičnega
vselej
prijazno
dar
živel
dvajset
primere
bazi
klic
gledališče
spek
##cal
Tega
strahu
Janša
kaplji
##žitev
ministri
poln
odpravo
sestavni
zapro
kolegi
čustva
##ploh
naslednjo
našimi
dogovor
igrali
##CI
##telju
žrtve
##ct
Dolo
poročil
razko
##zanje
bivanje
splošni
Matja
ustvariti
Stran
maj
podpirajo
##danjem
izjavo
Lan
živeli
kamen
vrednot
Ša
povezav
tekoče
Center
osmih
##čkih
##lana
razvidno
Evropa
igrišče
##vke
plati
izkaže
Preberi
okolico
sodelovati
oglaševal
nimate
igrišču
eksplo
##xi
##čali
##stavljenih
Glavni
vnese
izgubili
ravnove
mojo
študente
##matično
##njaki
letala
veter
Bro
alp
redkih
dopla
dežele
fak
male
napada
pripomore
port
pozitivne
Rusiji
kono
razvelja
postopki
Slovenskega
vodilnih
nedelj
življenjske
kisline
##penja
pridr
povečala
63
hče
pik
pričakovanja
ministrstvu
##šta
Bio
duši
domo
kombinacijo
žrt
IT
Val
muzeja
##hing
##pisni
izrazito
iskanja
dokumentacijo
površino
ustvarili
SK
računalnika
človeškega
Com
Cena
Sama
beljakovin
potrebami
štirje
dotak
služb
Izbira
rom
vplivom
nastajajo
članom
višjih
##speš
hoteli
##teto
##tenje
čast
atra
##60
Nu
nema
suho
izvajalec
predstavnikov
indek
ostanejo
integra
##jci
zraku
razpro
spremembi
Vam
interes
##stka
izhajajo
psi
sDi
večine
predvidoma
##taplja
Javni
zmore
##ons
narejena
državljanov
doseganje
svobodo
##rel
mlajših
sodelovala
upokojen
##kovanje
##primer
infrastrukturo
Petra
##danjega
osnove
celotnem
izena
električno
presti
##padanje
skrbni
##tolo
rojstva
listu
staršem
režise
dostopna
obdelov
preobra
pripravimo
rume
glavnega
zasledi
centi
govora
priimek
spri
##vate
sedmih
komunikacijo
tolma
povezava
poslali
##dim
koro
##king
upoštevajo
##hodek
probleme
most
pripravljajo
člankov
vključeni
klasične
težavami
SMS
taj
##likom
gospodarski
razpolaga
ugodnosti
številom
Vipa
##jskim
sodobni
##dovan
stekla
skrom
mesa
Slovensko
kombinacija
njegovim
##terapi
##kosti
skrajša
Njegov
maši
razmerju
##tet
dediščino
pomenijo
pritisk
tabori
##žnica
prostori
iščete
Pogosto
zaskr
dogovoru
jabo
društvu
čedalje
princi
občutka
Gar
davčni
62
##nia
nisi
industriji
situacijo
možne
prilo
hipo
sestavljen
les
higi
načela
predlogov
okoliščin
##čarji
Črno
vid
koncept
številna
##rina
##zek
podeželja
postopoma
dviga
ponudnikov
pasi
obveznost
dokumentacije
prisotna
medsebojno
##99
vojaške
NS
##uda
Pav
omenjene
rdeči
Tomaž
psov
##EK
občanov
EC
##vost
spadajo
El
fotografijo
trajno
vzeti
podzem
čaj
sončni
gostje
##IT
Kole
potrošnikov
Čas
##pin
klubu
anima
značaja
udeležil
sodelavcev
##zmom
ton
avtorji
sledila
odšte
lovi
kalo
##čujemo
Jesenice
pravicah
pogovoru
članku
ZV
##tati
Namesto
opusti
situacije
zauži
slikov
zavedamo
##šju
varovanja
Aka
desno
pogodb
sofinanciranje
solidar
nacionalni
temeljnih
reče
izvora
pozorni
trdo
sisteme
##ela
prevod
šam
letna
vrti
podobni
najdejo
##živetja
zavih
prihodu
zasebnih
smisel
zavezni
možnih
podobnega
uživanje
pasti
zadnjo
1995
zaščiti
##ness
mleko
rodil
slog
tekem
malen
oznako
sanje
##menju
izrecno
##cka
##čarjev
Ljud
1996
mestni
trening
prele
opisuje
val
Cerkve
##čevo
tekmoval
oboro
predmete
Evropsko
prilagodi
poudarek
nadstrop
vsebinsko
premier
ude
delali
policija
pozimi
rib
izdaje
uprava
bolečino
simbol
##klu
narejen
domačega
are
omrežjih
državljan
Konec
ostajajo
podobe
posega
Cilj
##terjev
besedil
vonj
letalo
omrežij
soraz
doživetje
ključno
##rskih
##tive
Borut
##SS
Koliko
nekem
##lnike
služba
znanjem
zaposlene
##žga
gozdar
##liš
omenjeno
Število
zaračuna
Radgona
##ye
izveden
transak
Hrvaško
mrz
skupna
cevi
skupnem
opri
##redu
občutno
potrditev
možganov
##valna
barvah
Ang
središča
medicine
vzgojo
##slove
nede
hitrejši
sAli
##šijo
prisotnost
vsto
##časni
šir
priporo
##čenju
omogočili
asisten
Ad
slabi
ponudniki
nasprotno
Prime
##ljivimi
##polni
enakov
nasvetov
agresi
Ža
Bošt
BMW
zagovo
##njskega
lokalnega
ustvarjanju
67
Sim
zavesti
programsko
Plani
vrnili
Super
zagotovili
Qu
dostave
nastale
vodje
disku
letnih
vesolj
vrta
sPod
zatem
dosežemo
hotelov
knjižnici
poprav
##ženci
vhod
klikom
možnostjo
poža
##litvi
##rum
škoda
povečati
zadevi
cilji
pravilnika
potrebam
isla
Pogod
obrambo
kvaliteto
proizvajalci
komunikacije
katastro
breme
##RO
vaj
delovati
rešiti
um
##roni
premak
plačilu
##pru
česa
ustvaril
urejeno
enostavna
##pali
Wa
pasu
križi
oddelka
Mestni
imele
generacija
Glo
lasje
proizvajalec
fri
##gate
urejanje
Sha
zvrsti
položi
Ugo
##kedo
##gradnja
spol
družinskega
Zemlji
sektor
izbrane
1992
##CA
sprejet
Nemčije
rokodel
razvijajo
socialni
1997
žan
gora
njihovim
slišali
posvetu
najverjetneje
##ljivim
turnir
umo
sklic
najhitrej
svetlobo
HD
širok
ore
Edi
zamr
dolino
opremi
##fan
vsakič
pravoso
##letju
kdor
Kranju
vabljeni
evra
AS
pade
drugemu
kliknite
##vico
prvim
##sju
##vnemu
zlata
zaključil
Samsu
Vpra
opravljanja
vzpodbu
##PA
mero
župni
Ajdovščina
94
infor
naravnost
strelja
februar
seri
razis
preveri
preprost
znanstvenih
akadem
sproti
varnostne
odstavkom
zobo
Šu
kompak
snega
Sre
itak
##čati
Kos
otroško
odprla
povpraševanje
66
Lepo
zadovoljen
Nas
zgornji
hrib
##cio
##rbov
odpoved
mizi
Naciona
omejeno
##nsi
Han
dokumente
mogla
stresa
učinkovita
mislijo
pravnega
ZP
##ljavo
sPodjetje
dov
razvojem
najboljšega
Aleksan
plin
##akti
##ujem
preživel
lastnikov
sedežu
nadzoru
98
sKon
opremljen
Zavoda
##rine
pokr
##mija
Kdor
pripomočkov
mrt
letališča
zmage
ilustra
Bli
Poslov
primeri
ponaša
kosilo
Sr
##reje
pelje
delovanjem
udeležence
sNovi
##grafije
ugled
promocijo
Tol
postati
##vine
neod
povezovanje
Kamnik
zahodni
izobrazbe
notranjih
premiš
presenet
Podatki
##organi
mestnih
turistično
čiščenja
mobilnosti
dodali
povem
##govz
##govar
nobena
verjetnost
##posle
##kultu
Zveze
tab
orien
##vim
ciljem
##stek
knjižnica
##jali
vidite
izjemne
##njska
ustanovitve
opozoril
##jočo
sodnik
ljubeze
zmanjšati
surovi
Delov
okno
odnosu
nastalo
naročnika
Prek
določila
izvajalca
sporazuma
##bitra
razte
spremenila
karte
vrniti
kulturnega
ote
poskrbel
poskrbeti
geograf
trikrat
##ća
živila
pripraviti
kakršno
sprehaja
Joh
preživetje
lokacijo
zanesljivo
brezpose
uživajo
##rena
vrhunsko
Marija
Agoda
72
poklicno
razstava
uporabljam
##govarjajo
okoliščinah
servis
rabe
##pila
akumula
oskrbe
potnikov
prosimo
srednjih
Turisti
standardi
spremenijo
vzgojno
cenovno
##njujejo
zgodovinskih
tvoj
desetletja
temat
##mino
kupci
vzeli
tedensko
##rico
delodajalca
pohištva
ločeno
##stven
##niške
vibra
jugoslovan
vno
naročite
dirke
pripomoček
##slav
mislih
sanj
življenjskega
##DA
odjema
pridobijo
nasle
SLO
efe
ligi
kroga
popoln
letne
delavca
uspešna
tiho
min
tekmovalcev
juni
##jskimi
groz
računov
krompi
navide
moža
glasbi
posvetov
180
podlago
Kitajskem
dirki
glej
##by
komuni
##stim
narod
nikakr
mala
spremenil
nežno
Šport
izse
namenja
postaviti
nevtra
##tova
uradnih
we
vsebini
govor
##bal
Mon
napiše
sena
političnega
pisanje
pomanjkanja
jekla
sSta
naučili
##LI
##vljenje
stene
##tnike
posu
sGo
oja
pohištvo
valu
##chu
Glasbe
plu
##KC
sponzor
koles
določitvi
Gornja
svež
razvili
trgovinah
policije
poslanstvo
Ac
športu
polne
pomenilo
sredini
Dvo
##skla
sprostitev
štirimi
Bese
sRo
kruh
izdal
Skozi
dostavi
##tui
Pohor
oblikuje
najrazličnejših
človeških
brat
obnovo
pisal
pričakovati
težkih
menda
iko
priporočila
informi
izdelkih
očmi
črne
obali
namestitve
zdravnikom
načrte
koristno
geslo
vzpon
##que
nedol
povrni
Roga
rdeča
naslednjega
trajanja
prisotni
vase
fantje
pusto
obravnave
##ina
deloma
stranko
enoti
navdušen
poganja
natančneje
dež
##minija
priprava
vsakdo
akciji
leka
prenosa
osebna
deba
sAv
prinesla
politik
##jšimi
zaključili
izkazalo
##gori
zeleno
sega
boja
##ljenjem
najkra
zmagal
dodatnega
oglaševanje
ekstre
vzel
##bom
misijo
neto
##lični
potek
izbran
sVeč
##narji
Bran
zasta
prispevka
nakaz
hidro
zgodovinsko
ustanova
poletni
detaj
prevoza
takti
potrdili
Sreč
##racija
Polja
tehnik
##dovolj
1994
##vici
združenje
poslal
omogočila
Franči
drugod
obremenitev
internetu
izbrala
oskrbo
segre
Svoje
redne
##žnice
proge
obratno
odgovore
hitrejše
korpora
slaba
posami
plane
vznemir
vozili
Avstrije
temno
razpa
odpovedi
vnos
rake
upokoji
##čišče
Gospodar
zamudi
igralca
dušo
morebitnih
nasveti
Wal
navedeni
vsta
delnic
rek
vozov
poskrbijo
spreminjajo
spoštovanje
iste
odšel
pridružil
Uporaba
popolna
##nesli
domačo
radove
##jam
zapre
oblikah
zasebnega
ljubitelj
opozarjajo
Turči
tiskovna
##baj
trend
mestom
družbenega
kakovostne
hotelu
podali
Šma
##nage
Mosk
kav
prvaka
električnih
deželi
navzgor
ministra
svetle
izvedba
zmožnosti
96
dvoje
register
Alp
priljubljenih
##čice
##tos
odru
blog
naroda
odstranjevanje
Izdela
skrivnosti
##lsko
sKar
You
##ffice
preto
97
##člove
##ст
narodno
dovoljeno
##alen
umaza
pozno
Koz
razveljavi
razgled
sladkor
električni
kakršne
prikri
bitja
sKljub
odkar
toži
veljavno
pritiska
diagnosti
priorite
elasti
ozadju
##njenja
evropska
angleščini
ero
pape
ključnega
direktno
Ange
prinesel
##mail
analizira
PO
sledil
sBi
Štajer
svetoval
vključi
omogočil
klasičnih
pelja
kuhinje
##GA
turistični
##des
občinstvo
sOdlo
##nskemu
potru
dalo
osnu
Sobota
##jala
dotik
sposobni
hranje
dome
reki
Meni
izvajalcev
spolno
prehrana
koder
##ria
slovenščini
##govalec
žle
pojem
Anton
##rio
tovrstne
sestavljena
silo
vremenu
##Po
##ževal
veščine
določili
61
Alo
občutke
razmišljanja
##nile
##prodaj
130
Bol
Vseb
uravna
doživel
toplote
dobička
Pomaga
koraku
pričeli
razglasi
nabor
slogu
Zgodovi
samostojni
Vra
zadevo
namenili
izobraževalnih
sPe
Fu
tkiva
prejšnje
izguba
##čla
aktivne
ustreznih
linije
##ništva
upošte
začnemo
Lov
##zvo
zaro
##rjenju
##IV
paradi
disk
bolnikih
zasebni
predavanja
bolečin
bogata
tretjim
sVsak
Chi
##ljih
##hat
želiš
ugotovitev
sma
vrtcu
zasli
bro
77
76
določil
internet
Kasneje
##kod
zabavno
kupili
ugotoviti
zelenjave
gara
različice
novinarjev
sPi
davčno
##greš
izzive
luč
##lop
##sch
presku
navade
prispevajo
kisi
hidra
odgovorni
aplikacija
Sov
malega
otok
Centra
##mpo
potrebo
poteh
##žniki
nale
rele
noben
kakovostnih
vojska
nedavno
okupa
višina
napovedi
baterije
nacionalne
institucije
##šina
trgih
nog
tehniko
preprosta
##mna
govoriti
znajde
plovi
valov
imenujejo
lestvici
MS
##tajo
funkcija
odpraviti
lad
pravilo
tekmah
delavce
obvešča
mladimi
predlogu
poiskati
##lske
##bliko
tovor
tujino
plina
##menja
Del
orodij
veščin
predsednica
naredite
potrjuje
zagovarja
parlament
prečiščeno
##av
##posla
poletja
otoku
nabra
dijakov
##pne
gozdu
izvedel
karkoli
##šček
pošiljanje
klavi
uvršča
France
takem
oprede
gasilci
razlogi
##pljenje
ustavno
izvedeli
s6
mehu
Hor
organizator
Dunaju
MA
arbitra
ogledu
pregledu
zapomni
##mese
enaki
svetujemo
zbirajo
##konstru
##ksa
financiranja
##nko
številk
III
dobiček
sogovo
sončne
Vrhov
informacijo
nastanejo
Manj
UP
##vja
ogrevanja
izjemen
##lue
mentor
določitev
zanimanje
##jšim
človeški
nastopil
nasploh
prometni
ustanove
Pravzaprav
69
Upam
##žnim
stiku
naselje
oddelku
ZZ
odstopa
odraža
pokazale
podelje
obiskal
določb
fra
##dka
##kole
upravljanju
delavnici
Norve
kosov
interesu
Mnogi
čem
110
alpi
##racije
Komu
zagotavljanja
Malo
brezposel
dopušča
pobude
okriljem
posebnosti
milijon
bloki
hrvaški
68
aran
meso
tale
dvoma
doživeli
Ben
zemljo
##letij
izdelan
##tana
koko
##stanovi
##tonu
spodbujajo
izobrazbo
ski
arhiv
vpi
podal
trgovin
vire
študentom
Genera
##čane
kultura
vere
slavnost
Alen
inštituta
ploščo
Sodišče
##jočega
Mestna
institucij
Novem
ese
dajo
sPrvi
sGla
##štov
Milan
pismo
zatr
povedali
okužbe
kmetijstvo
paten
srednjeve
##teta
##toni
skupščine
izbral
izboljšuje
flo
darila
Hra
sklepov
prejmete
preus
mehko
##šil
subjek
nekdanjega
Uprav
letališče
zaključek
praks
##rome
loči
tistimi
obema
nakupom
Velike
nahrb
kvalitete
dopolnitvah
pridel
nosijo
mandat
##stnosti
##land
mize
posredno
##skozi
Flo
Bole
tretja
športnega
sNajbolj
##lona
prisotnosti
zavedati
vzajem
##nel
##sodob
##škemu
naslednja
gradnji
sklop
ruski
etno
kulturi
##tini
izpolnjujejo
Kor
naravoslov
državljani
trdno
kilogramov
preho
obiskovalcem
Ministrstva
Mal
##niciati
hitri
gremo
počitek
preoblikov
Gorici
literature
Pravilnik
dohodka
obravnavi
##iki
iskati
MO
zimskih
sNeka
datoteke
parlamentu
bank
nadzornega
projektom
ekonomsko
izjave
##ys
ustanovljena
lahkoto
varne
nekajkrat
dokumenti
odbo
uporabljal
Klu
kara
##mente
najhu
češ
slavi
pse
Študi
obstoječe
sejmu
filozof
Can
Regi
čiste
kilomet
imenujemo
Ukraji
domačini
opremljena
predstavljamo
Andreja
mili
vzhodni
Muze
nasvete
današnje
Zanimivo
nebe
stane
poziva
farmacev
semina
medije
aluminija
##yo
ples
napačno
izpostavil
spola
imenovan
tok
pisatelj
##vicar
neena
##ljujemo
klimat
nastav
obletnici
##lt
##grede
pridobila
žre
štejejo
metoda
teksti
sili
notranjost
##lovo
igranje
nekatera
vlado
nemških
Knjiga
upravni
najuspeš
##rjeve
znaki
izdelava
##goni
statusa
Rusija
obnavlja
jutra
vrhunski
Prepri
desetletjih
fleksi
##življe
samopo
Trump
spraše
naki
oddelek
liste
nao
hitrostjo
gospod
jezeru
odločajo
pozabite
Fre
sčasoma
AB
musli
tekmovanjih
redke
Gle
računalnikov
zdravega
vzbu
pari
##paren
produktov
##dajalec
poslovanju
celovito
kuhar
spremenilo
obvestilo
ultra
specializira
posebnim
poročajo
Italije
##ciali
odlični
spodnjem
Podje
podlage
obiščete
Gregor
kampanje
poslovnem
kariero
##tarja
čuti
Kro
kodo
prahu
##burg
Er
dejavniki
##ženjem
organizirali
strukture
padla
##evrop
izgled
izgradnjo
fir
ključ
Sli
faši
vitamina
avtorskih
duhovno
Skratka
Kakor
Jako
napako
ugotovil
zobozdrav
##KO
urejanja
##šev
osnovna
moderni
Ameriki
Zdravi
##tujemo
ugotovitve
odveč
rekoč
izvajali
verjamem
raziskovanja
lanskega
FI
##liča
prou
doživela
nepro
finance
minuti
iščemo
izgubila
blazi
motori
naselja
arheolo
Oče
##zmov
dopusta
čezme
zaokro
humanita
##kana
zanimivi
Ener
iti
Slovenskih
##NE
nadaljevala
zgrajena
Isla
Martin
Hol
org
tebi
videla
prijatelje
dnevne
obramb
prisoten
LAS
##MA
spremenili
upravnega
DS
grob
##lično
obstoječih
drevesa
predmeti
##berg
priljubljen
Kmalu
programih
soba
##vat
test
##mana
##štve
##zal
posel
hoke
##UP
##ine
smerni
prejemu
dokazuje
Sy
##ity
preiskoval
pesti
##bulan
zgodila
##godovi
občinah
##krimina
vzrokov
pristojni
zama
pripad
streho
samih
vojakov
predšol
tablet
moreš
brezplačne
##žala
odnosa
album
mehan
##zmi
poizku
##ell
ločljivosti
eteri
##bera
najte
celj
umetniško
organizatorji
prehrani
napih
vojaško
dosle
##čevali
odločitvi
##terapev
antioksi
ravne
igrišča
poga
lokacije
84
##čica
kandidati
morale
pošteno
vanj
trenutke
ulice
Kova
razso
uporabijo
določajo
samostan
asfal
##meo
oddaj
##plici
Deja
zaveti
Odloka
Akademi
Adri
USB
večjem
zastavi
##88
##voli
ladje
poročali
izmenjavo
sneg
poveže
dostopni
##rjevo
kupil
tj
korup
homo
izdelana
1993
podpori
Fri
sadje
oder
##kus
temeljito
značilnost
veteri
dandanes
podrobneje
počuti
##xy
##sec
Seznam
sooča
ustanovitev
Matej
##tič
toplotne
soncu
opozi
Jugoslavije
Okro
##ovalec
ocena
zgradili
razprave
razvojne
ovira
##letja
subjekti
##lašč
trpe
##klic
nepravilnosti
NI
##sal
vin
muzeju
kandidata
Enako
##dež
razpisu
istočasno
##tivna
spreho
odgovorna
zasluži
##tica
##pine
odnosi
naviga
dolžino
raziskovalci
zgle
Šele
tekočine
##cho
##dane
poročilu
NLB
kape
vreden
Domžale
voz
odprti
splača
CO
NE
legi
strojev
##mijo
bori
škofi
uspešnost
uspešnosti
##dove
##mis
opravljati
dobiš
tisoče
trajajo
popust
nazi
##rič
žep
četrtega
Egip
preva
pouka
pop
##diha
olimpijskih
zavezanec
Og
##tičnega
prvak
načrtovanju
pretvo
doje
zvesto
nano
produkt
napovedal
lansko
nešte
kava
Gora
arma
##ley
zunanjega
raziskovalno
zgled
##žine
izvrš
zahodu
akcija
dari
nesreča
##bnega
pričel
Samsung
razpore
Državni
pleša
obravnavali
nacionalnih
use
##bec
vratu
užitek
pošljete
imeni
športna
brezplačna
dežela
modre
odgovori
##dovanju
Portoro
odpeljali
odločijo
ravnote
nanje
zači
Maja
Skupina
izvesti
nemška
dokazov
##香港
dekla
##ovič
##sche
##kolo
##tenja
sončno
spremljali
zadost
sTu
##ek
skaka
kratkih
Liti
odprte
razmeroma
prinašajo
dneve
Murska
92
Obra
##pto
Mesto
merila
vrstah
karieri
dolžine
Postoj
Zi
francoski
menijo
univerzi
temeljijo
severno
##dese
pogojem
samim
lepih
predmeta
oško
nepogreš
##PK
sončnih
Air
##zgo
staroda
strukturo
##ročno
zbiranja
izboru
ljubljen
zvoka
nizkih
objavila
festivalu
izpodbija
komo
noče
določiti
snema
uvod
##stanje
medicinske
nagrada
izdala
odstotek
Državnega
preganja
slednji
oken
nepresta
slovar
dreves
kode
##witter
74
ostalim
uporabil
preživeti
masi
dejavnik
vključevanje
slovenskim
ex
časti
veljavnosti
čudno
prostorskega
Bistrica
izčrpa
končne
ostati
kategorijo
aktivnostih
Faceboo
MI
dodatni
izračun
##rok
boje
##vnice
junij
nižja
prosta
sedanjosti
doktor
predlogi
##luzi
dolgih
sprošče
sedežem
naslovi
zapisano
drog
napetosti
aktivnih
opozorila
negativno
##vski
dodamo
posredovanje
gozda
ulica
sind
nadško
nezakoni
razla
čudovit
prostovoljno
Ama
investicije
delavnico
hre
izbirate
osvojila
Ed
Delu
##ang
ohraniti
absor
Radov
deleža
nalep
čev
dodano
preteklost
prosim
Upo
##deni
lokacijah
oglejte
sina
časi
sporazum
gotovi
prodajajo
Zakonom
Zgor
##stnost
predvideva
odpla
oktober
Am
##čakova
delamo
pošto
torbi
južno
odkup
bodoče
nizke
nalaga
omogočiti
proizvodov
pojasnjuje
izvajalci
prevzela
86
spregleda
zaposlovanje
varen
sino
preiskave
Posame
73
udeležila
##bali
družbeni
sodelovalo
sLahko
angleščine
vnetje
##tropo
Božje
košarkar
tlak
namerava
povzročil
pričela
razmišljanje
##skovalci
obremenitve
slovi
##ogra
ambulan
##CE
cepi
bloka
Ita
##SD
##njenega
reklama
nastanka
graj
##nus
jezero
OZ
cestni
CD
intim
pretre
čelu
##vijo
prihodnji
Kopru
Verja
predstaviti
zbirki
izzivi
oboje
pravem
poseg
##šili
križa
##ther
ubo
izdelali
proračun
ureje
srečali
87
karto
##mudoma
računalniku
premoženje
##vere
energetsko
najo
ugotovila
vojaški
načrtovanja
koncem
Film
Romu
jutro
mehke
relevan
Prej
doživi
obstoja
ozemlju
##niko
pristojno
nadzorom
Obstajajo
umre
ustanovil
mg
banka
odvetni
jedro
neforma
mestne
mobilnega
Cu
##VA
sod
celotna
##tela
gospodarskega
sproščeno
##ović
iskali
vedenje
zadru
smeti
izmeri
dalji
slovenščine
##stnikov
##kanja
sZato
##nejšim
Lenda
upraviče
najlepše
tar
Vodi
Nam
##nejšimi
potaplja
##boli
Vabljeni
elektronskega
Gru
enoto
Obenem
jima
spomina
##mnim
prejšnjem
##15
delovala
hujšanje
##roi
##cia
##nso
pokojnine
Gala
odte
logo
pogon
spomenik
##tiri
##zila
dodate
kratke
##drija
razumemo
strategijo
##habili
jugovz
igrati
skrbeti
pobeg
##nščina
razvojnih
tujine
laser
izpod
kariere
Klju
Ljube
Družba
##vanjih
odvaja
Omogo
fla
##gore
metod
Njihova
poru
vključena
računu
zanimajo
Teža
sodbo
umetniških
dirko
zapiše
##jemu
odšli
##likop
zgodovinski
sodelujemo
Skoraj
vidno
fizična
s7
##wn
temperatura
Marjan
odpadne
Oce
pametno
razumem
Sistem
OP
##KS
začnete
uvedbo
82
spoznal
najraje
##šiti
zanema
segajo
ženo
davka
posoda
svin
nalašč
plačo
vrhunske
Obve
postajajo
govorili
88
##dovali
##tovih
grem
zmogljivost
##zave
zneska
##šamo
režiser
##liki
##java
povečalo
Prešer
tragi
vedela
modri
vladi
neome
Dona
tekmovalci
sestra
očeh
Juli
Slovenj
tekmovanj
komunalnih
##ssa
bomba
##tz
iPhone
sever
Pozna
Kje
Trbov
##šenja
dolžnost
smernice
feno
Raziska
fit
morete
objekte
##35
športniki
City
##trga
giblje
zavra
zavrne
največjega
##ratov
kupo
dramati
sezona
omrežju
pokal
##jak
pioni
povezujejo
Sple
govoril
tradicionalni
##čnica
zaslona
izpra
izraža
##posne
Nobe
qu
##žnimi
Igor
klasično
načini
##njskih
zelene
dopolnitev
menstru
digitalni
poslancev
majhni
angleški
sekund
pomanjkljivosti
##cy
preprečiti
arab
dok
zapisov
##grafija
prireditvi
##stel
poku
doj
kupcem
mestno
resničnost
##lip
peča
vsakogar
odstraniti
##teljice
Jure
podrobno
situaciji
##dis
urejena
140
sVeliko
vašemu
poskusite
letnika
##ring
storil
ustvarite
poskrbimo
izbrano
dovoli
paketa
novinarji
Vir
uspela
Simo
Sk
##žnikov
poskus
##zahtev
možen
kamero
nemudoma
vetera
najsodob
ponuditi
##tanje
Večino
postaji
##don
##logiji
Red
stiska
ubi
ponedelj
vseskozi
opravljal
zvezde
partnerjem
tečaja
neskončno
odpornost
York
migrantov
gene
reprezentance
luksu
nevih
pravili
obrazu
uporabna
krvnega
zadevah
posnetkov
Pravilnika
vedenja
##njenost
odvisen
načeloma
##over
odločanja
Vladi
meda
poraba
gradnja
kuhinjo
Prvič
legendar
kuhinji
Govo
svetovna
delega
sekretar
stika
sposoben
ponudil
visokega
##blem
mojstr
##najstih
##reditev
preproste
ekstra
občutljive
čebel
osebje
sTre
osla
ribo
varnostni
narejeni
najvišjo
prevozni
klet
podpre
spomladi
poskrbela
afri
razmisli
##dnica
primera
kompone
privi
komentira
radika
ekološko
##racijo
standard
##loni
razpravo
##dnice
ohranjanju
lepše
pisni
brskalnika
preverjanje
odločanje
motnja
##ов
##čiča
zavest
študentje
Uspe
##tji
izkorišča
sporov
vodilo
78
steklo
manipu
raciona
gradbenih
art
zapora
ponosni
##mus
hibri
sklepom
Moje
priznanj
površini
##stvenih
politična
ruskega
učijo
arhitekture
apo
##teti
Cor
kave
Imamo
poni
umetnikov
tvoja
lega
čustveno
voznika
RA
nosilec
drevo
##meter
melo
srednjega
pouk
odnosih
##letje
popolne
končanem
boljšega
pridruži
dnevnega
vzpostaviti
razstavlja
najdalj
Vol
Priporočamo
##bs
toplotno
različici
##car
študijskega
79
Klemen
povečal
objavljeni
##knji
postav
rehabili
##ženosti
opravljanju
krema
avtomatsko
vsakim
omenjenega
podoba
Spozna
nasilje
najlepših
padel
življenjem
vprašanji
poletne
zbere
mlada
zgodil
ribe
##zator
zahtevam
množično
pojasnila
sestre
mladosti
zdaleč
skodeli
sovje
aranžma
Office
##žnje
##CO
življenjska
povzročila
zasebno
Elektro
##DI
zgre
matere
##ind
vozniki
možni
##stveni
enakih
zakonske
procese
bogat
##stike
rekonstru
poznam
##brom
##13
zavarovan
recept
mirov
ulicah
upravo
spoji
tehnični
prihran
Nav
povečali
reflek
figu
teorije
papež
Doda
centrov
93
pustolov
evange
okusa
izzivov
##ras
zami
ključni
sodbe
Nikoli
car
##mec
transport
severu
##VO
dostopne
letnici
osrednje
bruto
##membe
Preve
kW
osnovo
##genci
##tene
##bari
strinjate
##gnali
pož
dohodek
##pil
dvoj
obdobjih
knjižnico
900
##niško
prite
##ces
nagrajen
zadev
Zele
Vu
trenutka
Unije
izvle
##movi
paki
srečujejo
kamere
italijanski
izhod
velikan
zadrža
dolgoletni
klasični
financiranje
celem
jutran
giga
standardov
konkretno
tujega
Opera
izbo
##prosto
##peta
##zako
presenečenje
pritožbo
Loga
raziskovalnih
dostavo
ljubitelje
zasa
dejavnostih
objavljena
fre
Člani
##logu
##šenih
avtorica
uveljavitve
kmetov
bogati
##UT
mine
##rniku
proceso
##zirati
##div
bivali
vzorce
SN
jame
special
##zme
vsakih
nepredvi
izšel
leže
prevajanje
razvil
serija
##udimo
konstan
Vin
kop
##gijo
Bled
##tk
Osred
krep
stabilnost
človeštva
##žben
Dejstvo
preizkusili
Tov
ugodne
nevarno
sOtro
sedeža
helikop
zborov
vodnih
brezplačen
slabega
##II
Avtor
ukvarjati
integri
##ent
kjerkoli
Sodelov
zdravnikov
##lskih
##vje
sonca
individualno
čela
odstotno
četrto
stal
izdaji
sprejeta
škodljivih
##shi
preli
##slab
idealna
finančna
zgodnjih
tretjo
varnostno
ekonomske
pripoveduje
predpisih
##rskega
novic
BDP
Gradi
imenovani
prvotno
##šejo
najla
podelitev
Združenja
##ncem
##tnico
vrati
boleznijo
##mnih
dodatka
zmagovalec
hodi
rubri
uporabno
Zadnji
svetovanja
ustvarila
telefoni
strupe
pridružili
tka
počitnic
vojaških
prepreči
zajtrk
##14
##čala
direktorica
zalogi
kondi
polfina
##chen
##bon
kakšnem
poslanci
##izo
Izpadanje
pokazati
izpadanju
razdalje
##ham
oglaševanja
ustrezna
dodala
glavobo
nanjo
Star
razumejo
Finan
sPredsednik
ama
poskusi
simptomi
##tani
socialna
##lcih
preberite
močni
zaposlen
Sveti
nestr
služijo
generacij
Apa
povečano
priljubljene
izpita
rednega
serijo
##dena
različnim
delala
črna
##vojo
vrnila
zelišč
seme
banki
izogniti
stranskih
160
videoposne
##jočim
Krško
lista
preizkus
Priča
določbo
kmet
posredova
slednje
uslužben
rednih
Europe
terjatev
##žino
podre
pisanja
bližnje
Ustav
duhu
maksimalno
kavo
študiju
mislil
##rjevi
volilne
rdečo
##serva
podjetnik
Bogu
računalniške
Nemci
Nemčijo
razmišljati
temperaturo
letališču
##yer
november
kateremu
vplivov
pravih
Piško
zdrava
Robert
pridemo
zbranih
Matjaž
azi
##hih
Namenje
stojni
študijskih
situacija
##kovič
enakem
##liščih
garni
AF
Šol
zaigra
odpadke
cesa
uspešne
znes
zbudi
Angle
steno
obvestil
Avstrija
nedolo
davek
sob
##und
gledalcev
Maj
povprečna
nemoteno
Spletna
vzpenja
težke
lahka
vojsko
zahteval
veleposla
ZN
##ted
predelu
vrnitev
vzhodno
ponudili
brona
vadba
omejena
interven
premika
cu
upanje
Potreb
##tekti
reprodu
prah
prehodu
delijo
raziskava
Spe
moni
dejala
črpa
##noma
nasprotnem
bolniki
Cla
##vija
igrala
rudar
bol
analiza
znanstveniki
zbornice
zapustil
Londonu
##čaju
olta
prenovi
bibli
sNajveč
lažji
fizičnih
Parizu
mano
opravijo
Italijo
izvajanjem
slišal
hladno
Uredba
zadaj
zobe
nekaterimi
pretirano
čebelar
Človek
83
sanita
##rjanje
sOs
##dišča
sCe
vzela
##vizor
mened
##anta
Posku
zakonov
spominu
večjim
poročanju
antioksidan
Mc
##gio
##rjave
znatno
digitalnih
poglavje
##ihče
povabilo
sopo
prispevke
prevede
##valnega
dogovora
izkoristili
##skluzi
objavili
konkurenci
mreža
kleti
oran
učinka
##niškega
urad
občutki
postelji
slišati
unija
najugod
##VE
imple
Sovje
##zga
Spa
##denje
uporabila
##ralo
mon
uredili
skladišče
pijače
smučarskih
zažive
izle
##rjenega
osamlje
diskrimina
Sklep
Obli
Njena
Maribora
poskušali
zemljišče
strinjam
klopi
##dije
Tom
marketinga
er
nikjer
marec
prijazni
##žica
obvešče
blagovno
Zdi
nadle
##zani
##16
pristopa
kabel
biro
združ
ukrepa
sEna
tržišču
mail
članka
vrhunskih
TU
načelo
Najboljši
notranjega
kod
kozar
hranijo
dohodnine
Ili
informacijske
uporabne
obarva
hip
posameznikom
dizel
kategorijah
generacijo
##deti
krivi
skratka
##stili
Mehi
nekakšen
oglasov
prijeten
Očitno
druženja
polnjenje
morebitno
voščilnice
Sal
obnaša
Bila
učencem
transpor
potreba
raziskovalne
identitete
##ljite
izogne
športnikov
AL
vodstva
##gajajo
stala
vesel
##MP
Mali
gospodarstvu
stanovanju
rojstvu
strukturi
jad
davčnih
vsakr
##stvene
komponen
zdravih
lanskem
obvezni
zasnovan
slovenskimi
brskalnik
pametne
prostih
operacije
##belo
sprem
##ashing
nadomestilo
##poro
propad
konji
##pljenja
##fon
dram
slovan
odločilo
minimalno
krizo
zeleni
blagovnih
poudarkom
##xa
stroje
Vaše
terapije
Ger
##pp
postavljena
prenosni
najkrajšem
zelišča
podaljšati
krov
##stran
##ljevanje
Preberite
poznan
zasebnost
nohte
Šošt
potu
celega
takole
jugu
nadaljnji
izjavi
plus
raziskavo
obleke
##ket
##gode
najmlajše
izbrana
urednik
upokojencev
pobra
termina
upravičeno
anga
##LJ
poziv
##žiga
ospred
diagno
##stopek
kmetiji
osi
##tvam
vredna
pomladi
avtonom
posameznem
umetniške
Ivana
obzi
srečno
zmožnost
Uradnem
transparen
krvavi
jekle
kontekstu
##dvo
urejen
mednarodna
izkušnjah
Predstavlja
kmetijske
##sig
posebnost
vzorci
##ric
Bojan
urada
ID
hiper
procesi
##ning
artik
vnetja
Vsebuje
ospredju
Zvo
anonim
dodati
##cher
enakoprav
izobraževalne
iskreno
##lestero
angleško
občutljivo
letnem
Gradec
avgust
dolgem
Eki
##90
vonja
otroškega
poslovalni
##hlja
možnem
organu
prišle
dnu
Župan
plinov
pih
predsedniku
interese
kalorij
enci
vprašanjih
končani
varovanju
##česa
bodite
maso
cev
avtocesti
sladi
železa
sŠte
##čeve
zahtevne
interesa
dopoldne
##smi
opravljeno
vznemi
sW
prostorskih
umetniški
##rim
čustev
sObčina
računalniških
rastlina
ameriška
rodi
avan
Prosto
upravljavec
mra
##sci
neso
veliča
lepote
zapa
molitev
sZna
preteklem
december
velikimi
zaključila
##2018
okrep
merjenje
posameznike
Podrob
prijatelja
strokovnjak
zaslonu
Izpo
Brežice
plačuje
Drago
##22
Politi
zavodov
##šah
Bilo
Goog
pomlad
prijaz
komisijo
obogati
težka
##reni
dnevih
avtomobile
zgodnje
vplivi
Portugal
semena
##com
predo
preveriti
BTC
ST
bela
Jadra
##rvo
##rist
izid
varna
zavezuje
nenazadnje
postale
odkrivanje
rastejo
obkro
mladine
dogajalo
čudovite
porodni
odti
večera
prezra
kul
##hek
nastali
nogah
boljših
slado
storitvah
veselo
Kmeti
Zma
##linu
##kaži
dolžini
svetuje
šolanje
srečal
##GP
termo
Jurij
minute
narejene
sedmi
privede
namenjenih
Hotel
Kraj
##RC
Pouda
plaži
Menge
vztrajno
predal
večno
ansa
tlaka
kohe
osnovnega
počnete
##cijskim
križ
čip
drugačni
industrija
One
pripis
stil
nepričakova
Sploh
celoto
sreči
hlače
otoka
##ovale
odlikuje
mnenj
razumeli
Barba
Pozdrav
ugle
##zali
##glas
uspešnih
zmagoval
Stori
vzdol
ekso
prelom
##danju
vizijo
omeniti
Zgodba
lati
##šolci
zbrane
cele
stva
##40
sStro
hr
problemi
pričakovali
turnirja
izobraževalnega
##denj
bel
krajše
ukra
pridi
komplet
Brus
praktične
znanega
nemškem
##pt
##zili
##ün
slučajno
slovenščino
ova
##gena
znake
muzi
izboljšanju
rojen
divja
##rici
blogu
močeh
sporočilu
zasi
meno
angleškem
izkoristiti
čebela
ljubljanske
profesionalno
milijone
##vra
##minali
najce
oglasi
tvoji
idealno
dosledno
dohodkov
Slov
izraza
zaključi
poudariti
posvoji
uporaben
Temu
prodajnih
ključna
izdelane
##dajte
PS
##šila
zahtevami
Pan
##djem
##šku
odgovorno
nenavadno
utemelji
motenj
Gimna
jesen
Direk
GS
poklicne
konferenca
trajnostnega
##stana
stilu
pripomočki
brisa
naučiti
1989
##IZ
##ranim
Andre
podro
sejma
inštitut
uga
Obču
Izola
stvare
razumevanja
##tum
zgodovinske
trenutkih
dobrim
Primorskem
sho
porek
##rik
sZelo
sKnji
prilagaja
##nga
##ziranje
ostre
opazil
Rusije
https
Kristus
podpisov
Rena
tovrstno
civilne
pripeljal
obvezna
pridružila
navodi
lako
delcev
##lla
##lnicah
##gradnje
urediti
kandidi
zmanjševanje
najnovejše
negativne
Vsaj
##jc
intui
priloži
Blo
situacijah
dogodiv
aktualne
App
higie
kmetije
zvezdi
kmetijstva
SMC
doka
zapolni
pomembnejših
##anih
tožbo
najzahtev
nezadovolj
ovire
spoznanja
kriza
nero
vez
##toval
podpredsednik
gospodarska
Social
##taciji
vijo
sklenil
Skr
sodelujočih
udobja
kompleks
Običajno
Zaveda
pisali
Rusijo
Cha
dopoldan
zakonodaj
dosežejo
ponekod
galeriji
##wo
točkami
stike
plačilnih
ranje
##letnem
razlik
jezikih
resnice
##čilu
##stnika
kombinacije
paketu
izpostavljeni
##peljala
predstavnika
ljudstva
##vovar
ohranitev
komentar
##vki
manage
Izvaja
Francija
zavodu
fizični
šibke
AC
sza
tožbe
osmi
fizio
opravljenih
obletnico
##redni
##datke
načinom
magistr
##55
Ljuto
barvnih
##mladan
proizvodnji
aktiven
gibanju
sprejemajo
navdušeni
##ščanjem
##dovo
regenera
spremen
trženja
informacijskega
ponudimo
posnetek
##toma
rešuje
dim
trdijo
Najpogoste
pretok
meritve
označuje
##ен
uniji
zastru
ozra
kvalitetne
##33
presenetljivo
KS
aktivnega
reviji
ravneh
##au
poznavanje
dostopnih
konkurence
##šana
##his
holestero
predlagal
kran
Špor
popelje
določijo
vitaminov
##acije
nati
krista
seznanili
povezovanja
napravah
sPonu
Brazi
izjema
mogoča
vojaki
##čevanjem
##ia
Petro
##nitivno
##rovz
Uporabnik
štar
petimi
Čez
sedežev
hrepe
pustil
imunski
gnez
##pravili
##govanje
materiale
impe
registracijo
##ktivni
vključili
ber
umetno
##jnik
Nisem
##kol
ustrezen
##legi
državna
zdijo
raziskovalcev
tari
koče
sodno
oksi
večerjo
##77
##ročna
##stope
Vseeno
Slo
zabava
zadovoljna
##BI
##reo
##čevala
mete
vrednostjo
trditev
Nek
pripravljene
nacionalno
truda
prvaki
testo
##dobči
##nesla
učitelja
pojma
Takoj
stalnega
zagon
Boži
toksi
ljubitelji
starem
odličnih
##rnici
vsebnost
standarde
turistov
Aleš
povpraševanja
zagre
stroke
izkazal
opozoriti
nohtov
okle
sna
razgiba
adre
##ск
juli
prispevali
ploščice
celostno
svetloba
kolesarjenje
nevarnih
##genj
svetega
##wor
Boštjan
etike
##ščice
preživela
klubov
odloka
avtoh
učenju
odhodom
znal
listov
odločiti
premie
bližje
lepoto
mladega
potom
teži
nikogar
Mor
uspehu
Življenje
obleko
Opti
maska
slediti
udeležencem
##teni
##lnikih
zaželeli
vul
sklene
prisotne
Col
##tam
##zon
Kata
potrošnik
režim
nabi
vira
strogo
razvila
##lia
prid
svetovalec
kino
Preko
motorjev
znali
##šanjem
podneb
fron
zati
podvi
plez
giba
iniciati
##reden
obveščeni
bistvo
##pravljanje
finalu
otroška
##klav
davčnega
zlorabe
##vosti
vključiti
verjetnosti
napisala
hrbtu
##slovje
živela
lepega
nemi
Boris
##grafijo
šved
##kovega
izjemnih
bančni
sesa
rez
##nda
##nicah
pomor
##tnikom
delodajalcu
neprestano
prede
slikovi
aktualnih
##komunika
šolstva
sprejemanje
##gene
Tekmov
bazen
srčno
najboljšimi
Ustavno
##use
##EA
##can
pridobivanja
pisati
ameriško
prispevki
predhodnega
pisanju
motorjem
garde
katerikoli
prvimi
zmanjšala
Zveza
branja
##tus
mater
##dnevni
naslovov
terapijo
Aloj
najprimer
spolne
raziskavi
1941
##reče
samomo
kuhinja
##gove
nakna
pridelov
Žu
##cle
neve
kulturnem
ideo
Stri
##rojen
prigri
tradicije
izplačilo
pojavila
pozabiti
spomladan
končali
bitje
odgovora
Filozo
ovir
vidiš
##cin
zaslugi
najši
svetom
Radi
sklenitvi
Skupnosti
napis
popusti
aktov
dejstev
ozemlja
##zio
enaj
čevlji
končnega
Imam
obračun
žene
##ročila
finale
Njegovo
dobrodel
pomagalo
nepreki
primerjavo
Zave
##tivi
cvetje
branju
odsotnost
znamo
Af
sSve
##bljenega
Roman
Ira
prometno
Afriki
slej
##gr
seštev
izvedla
zmagi
Nada
plod
##jaki
##pite
ljudske
##bin
pisma
odpravite
najrazličnejše
kralj
Valen
Makedo
spoštovanja
pripravijo
##kav
Gale
smete
Uži
bogo
Sil
demokracije
##ktivne
vključen
blagi
zvočni
delavnicah
pozabi
odmerek
družabnih
gru
pogovarjali
##rednih
Seža
udeleženec
poslovna
rešili
sMini
opaža
resnico
ode
kompozi
slušal
postopno
pripravljamo
pooblašče
dolžina
##genciji
viken
deželo
pristojnega
privoščite
89
ohla
trepa
uporabljala
##tice
Stari
kritike
rodila
ekskluzi
ozadje
rokov
posamezna
BI
zahtevno
Šmar
##demo
Nagra
kristja
sledili
severovz
slabosti
preiskavo
linija
odločno
1980
revoluciona
padec
seksu
zgornjem
pripomočke
Grosu
Vid
napaka
ljubljanskega
opredeljuje
Plus
polča
opravilo
nujna
predstavljena
glejte
generalni
sSku
UKC
priznati
antibio
modele
poslanec
##prva
sodelovanjem
posvetil
posredovali
mamo
združe
radia
Janše
kolu
srečanj
žarki
Gran
s8
zaže
zdravniku
meritev
najpozneje
##nki
##skop
##rnico
turnirju
Dal
postopkom
klica
pripravljenost
##dini
načrtih
škodljive
odku
avtobus
pokrovi
preusmeri
nižjo
delovnim
fizika
zgleda
vladajo
##zirajo
Predlog
množice
bon
dovolje
motoci
Sne
##ud
bok
zbrani
izpolniti
tablete
Materi
suši
podjetništva
samostojne
Zanima
načrti
Uro
priznanih
dokazano
Direktive
večname
uradne
Šentju
teren
čarob
##čji
spora
Kajti
pokriva
mandata
suvere
kritično
sedanji
nastopila
ponuje
##rjajo
##zniki
izobraževalni
Cene
dejavnostjo
četrtletju
Takšna
prera
Nata
naravnimi
značilna
Vsem
črke
mišične
##čnejši
vsakdanjem
teroristi
Zupan
##vnostjo
Marije
ljub
##rad
pokon
okva
spremembami
##šle
dotika
Dva
predstava
zadnjič
udejst
privze
zagotavljanju
promovi
predelov
opremlja
pozitivnih
you
##17
znanstvene
utrujenost
soču
##bet
drugačnih
bloge
upočasni
dvomi
podjetniki
marketing
zahodno
##bus
zahtevek
sprejmejo
številnim
prvakov
Posebno
obiskom
Opa
##km
Slovenec
najslab
fik
Ljubljanski
opazimo
teles
nagraje
maščobnih
Kitajska
varuje
UN
##her
prepla
volilni
odvisni
Ide
razloge
temelje
površina
dostopen
kaznuje
praktičnih
odpravila
miza
rock
fol
pametnega
##šnika
Celja
predavanje
moderne
gledališču
njihovimi
Avstrijo
mostu
omenjena
pečat
Vklju
stavbo
ujema
##rjevega
plemeni
##gradnji
prizorišče
##TM
pravilih
pritiskom
##EČ
popolni
ravnovesje
denarne
povprečne
turistična
vremena
najema
David
napadu
##jemanje
izpostavljenosti
sejo
dvorane
ljubljanskem
prepovedi
As
termin
obveščanje
##cri
odpravil
psihia
točkah
mladinskega
##Tu
line
sGre
Trans
daril
kultur
##zirane
proizvede
stavbi
znašala
ove
širjenje
Pen
##mato
poslika
##cm
prizadeva
podpisal
takšnem
Slu
##bine
Arhi
linijo
Celj
logično
Jožef
Hit
predavanj
vzroki
zakle
smučanje
kemikali
parkirišče
voznikov
##bro
mladino
zahtevnih
operacijo
september
oži
prebudi
##ščati
tekočem
##19
##lič
sodobna
pogosta
lastnine
##开奖
##selj
kupila
tradicionalne
zimskem
željah
voščilnica
kova
turne
spoznala
izhodišča
Nihče
rasto
##dovala
prekršek
##lacije
medij
sTorej
sŽi
pesnik
industrijo
Ustvarja
ekra
mašče
veselja
bolnišnici
sSicer
slovesnosti
obram
vzdržljivost
podpredsedni
zeliš
odstranitev
vztraja
žogo
Ugotovi
##lp
##obla
določbami
made
Laško
dopolnil
##figu
prodajalec
nevarne
##ditve
šesti
zagotovitev
čopi
izboljšali
formula
##hal
##lit
##rika
potovanju
stopil
močnejše
pokrajine
pridružite
gladko
##rejši
sKu
povabili
postelj
Tak
aktivna
kakršen
zimske
digitalne
širšem
poimenovali
postajo
Velikost
Izobra
Njen
nizozem
omenil
Španiji
malenkost
##nav
sestanek
prenovo
zahtevna
uspešnega
količinah
obrnete
vstavi
jedra
zmanjšali
obrob
otroštva
stoletje
Alja
##cel
napetost
prenašajo
potekale
ustreznega
identifici
ustnice
##navlja
daljavo
osvojili
najmlajši
vite
strankami
korenine
pijačo
obroč
Janković
razpoloženje
nege
##lacijo
naložb
pooblaščen
barvami
populacije
forum
anketi
pokličite
##rem
mol
vključitev
zanimanja
Učenci
sporedu
posamezniku
pozabili
##jočimi
Hen
##kciji
##TS
obdelavi
razmno
založni
humo
uprizori
##žkov
Mag
skladbe
stiski
stroji
funkcionalnosti
Zgo
nacisti
volu
znamenju
prizadevanja
Mengeš
minilo
igralce
referendum
vključenih
kreme
širšo
prijazen
##unda
posveti
prispevku
kontrolo
EP
modni
resne
jubile
božan
##ls
obiščite
spodnje
PV
sSpre
slabši
izpolnjevati
pris
##čenem
nizka
pristojen
##mega
kali
##fikacije
današnjega
izrek
izgore
imenovane
mer
demon
izvedena
izpolnjevanje
verodo
vstopu
občinskem
mehanizem
Ustave
prile
razvojni
##dstvo
poiz
teri
leče
centri
uživate
Preden
spremenite
upravičeni
nekaterim
današnjih
regionalni
##ode
informacijami
uvrstila
prevladu
poljubno
Odpr
delavcem
digitalno
##muli
Resni
šolanja
sZakaj
Sredi
pivo
karier
starša
profil
najstarejši
reakcije
dvorano
nadaljnjo
razsežnosti
Oh
ostri
seriji
darov
##čnico
lotili
trudi
Mih
##stransko
njima
peto
skupščini
upoštevamo
osnovnošol
kolesom
odprtje
Največji
certifikat
mestnem
razvojno
zagotovila
revija
Posledično
nočitev
##ult
pozitiven
##lici
##merne
plačil
izgovo
molitve
barvno
Včeraj
zakri
povzročilo
problematiko
absolutno
##ра
plano
ustrezajo
televizije
premajh
gradbeni
pedagogi
smuča
MK
##dniku
dile
Območ
prekomerno
obrok
nesrečo
obdelujejo
oporo
bogastvo
zamenjavo
izogib
##povra
Novak
opi
##njaka
računalniški
našemu
zbirk
Festival
aparat
##op
##jevi
ciga
prejmejo
Ab
sponta
##lis
##vnaj
NSi
odvisnosti
metu
Posebej
moško
##sona
Univerzi
cari
Naslednji
prijazna
graditi
rodu
varova
zagotovil
ugodnih
Celoten
##stnimi
sNasled
##nejšem
dodatke
neg
postavila
Power
tehniki
pomembnosti
ocenjuje
preračuna
cir
strehe
brata
dvigne
ustanovljeno
Dravi
električnega
KM
SV
##dobra
osebja
premisli
Namreč
dvobo
ustanovili
##gl
golju
razkriva
IZ
Opo
##zilo
Jožeta
podprli
nevše
štipendije
učne
##论坛
primanj
tolarjev
podr
srbe
zabavne
prevzemu
kontroli
izmenjave
odpelje
telekomunika
zaščitni
razvijati
računalniško
odred
tedne
Spi
bur
odpravimo
negativnih
##jasni
zamenjati
Art
osebnimi
zasebne
Združenje
artiklov
##IP
zasu
##roza
hitra
izvoljen
motiv
petnaj
DV
peko
kupce
običajnih
priložnostih
pogledom
razmerjih
opisal
Miro
marsikdo
gnoji
vetra
sveto
usmeritev
##tva
vložiti
treninga
ustvarjalcev
količini
zdavnaj
CO2
mobilno
tovarne
Zagotovo
##lak
stope
zastonj
oblikovali
francoska
plastike
Kan
dri
mlad
invalidov
##buje
tea
umetniki
imenovano
spanja
odkril
prevzeli
obresti
digitali
Britaniji
##vko
##alnimi
##kraj
sDrža
akcij
Martina
gume
imenoval
ovredno
Neu
lokalnem
zgradbe
zapira
kolesarjev
igrače
nimaš
nastopili
podelili
odprtju
##litvijo
sedi
odklo
Slovence
likvi
televizor
##zirano
razvije
navedena
Agencija
vrnitvi
posteljo
idealen
ponos
mesti
dolgoča
ukrepih
##burgu
voščilnico
omogočilo
##kate
##piti
##ljudno
##ziranih
zmanjšajo
korakov
možgani
Odlok
##rol
sestavo
progi
vpisu
##000
poskušajo
kruha
devetih
start
diša
zdravstva
Proti
poznali
avtomobilu
prazniku
kamera
nalete
Gaš
Char
Ya
##rskem
nabo
prehaja
razpravi
##šajte
belih
srednjo
##zirana
AR
##tnostjo
##treje
tvorijo
tranzi
##con
neura
odgovorov
podobi
zaljublje
prilega
razbre
odgovoril
##povpre
##stvenega
reziden
tebe
hoje
visokem
Predlaga
zaposlenim
delitev
IV
izpolnitev
švicar
##UD
posredovati
konkretnih
SS
izz
svete
##cus
prijav
odškodnine
pripeljali
cela
posvet
delodajalci
zakonitosti
resolu
sateli
planin
Miklav
športnem
dostopnost
nujne
bakterije
led
skupščina
sCi
mačka
goro
poteku
članstvo
soočajo
##MI
priljubljeni
motorji
splošnega
črpalka
trde
osemdesetih
pripravljeno
denarjem
##čanjem
novica
Volk
sEvrop
ustanovljen
povezati
poslovi
terori
Sen
razlago
pravim
zgrajen
koristne
vsestransko
sBe
izboljšave
nasmeh
aktivnostmi
oblikujejo
skrajno
Bliž
avten
proizvodnja
Kol
zdravstvo
avtorite
predsednikom
učenec
južni
delam
vplivala
prispeval
kremo
splošna
fon
vanjo
nadaljujejo
umetniškega
##mal
znamenje
litrov
spanje
izdelku
3000
samoume
kvo
##ener
pridno
sodne
sprejemu
sIma
poklicnih
udeležba
zavarovanju
vročih
simptomov
s9
##nikih
predstavljal
sProjekt
veterinar
pobar
letnico
moškim
sistematično
dosežek
Končno
uvrstil
uporabniške
vozilu
zbralo
adrenali
meste
brati
shranju
nauči
utrip
preživijo
kopr
rece
praznuje
vege
razvaja
zelena
dnevnik
emisij
redki
razredov
desetletje
Trbovlje
napoveduje
vzgaja
storili
Vita
likovno
konje
trža
ekosi
smrtjo
vznemirljive
otek
igranja
##TP
##tiva
vsakdanje
nosečnostjo
priporočil
zemljevid
Smu
neraz
sSte
Povpre
##raš
naraven
začetnike
##mani
delnice
držijo
delavnica
tradicionalnih
kartic
izkazni
make
Tech
Rezultati
rak
izdelani
alar
povedano
določenimi
obutev
navad
nebi
##delku
brezskr
kakršnih
obzor
##fizi
pišejo
##hanje
##LE
vodne
vidni
##tniku
potrjujejo
91
DP
postavljen
povzro
prepričanje
stavba
april
Merca
Zahvalju
obveščanja
ruske
Alpe
sosednjih
uspehe
filtri
Občinski
eurov
Težko
imenovana
Geor
##jevo
spomnim
mise
Uporabni
direktive
najnovejši
lestvice
upad
ocenjevanje
##valca
Izbra
vsakdanji
sVečina
neposrednega
neodvisno
zaku
presko
edin
Luk
pustili
javnim
imunskega
##zai
papirjev
ustanovitelj
časovnem
omi
nacionalnega
OS
plan
razširi
duhovne
ženskam
Galaxy
Dre
mole
praznovanje
##bit
Radio
branjem
dopolnjuje
zimo
usposoblje
sObi
splošnem
dosegajo
##70
Primož
globalno
##politi
Mila
zelenjavo
usmerjena
##mrt
dek
Zemlje
Črni
##zala
znanju
samoo
Filozof
počutili
teste
dokazujejo
sVendar
kriminali
trideset
dobrem
načel
odziva
hrupa
preklica
doživetja
stikov
ideolo
volivcev
sledilo
##KI
dragi
oddalje
Ponujamo
Bolga
oprav
štev
kulturna
pridobitve
Šola
##jnim
stabili
##gusta
človeštvo
spodnjih
Gospod
Srednje
izpred
Dolgo
neha
razvrsti
orto
##rjevanje
##kisli
znašel
zahtevati
množico
##šam
julij
učitelje
Odločitev
pokažejo
trenutkov
pojavil
napredka
trenerja
angaži
##pili
##lie
##štovani
##sim
obravnavajo
vojaškega
uresničevanje
koncentracije
vše
izstre
obvo
gostu
beguncev
##RP
##nesite
Skle
medu
organe
Južni
pripravljenosti
občinstva
Britan
eur
energetske
her
razviti
ohranjanja
au
doča
najdra
članke
sJaz
bližnjih
obdeluje
##niških
zagleda
nos
##pul
gledati
ozadja
rekord
edinstveno
čaja
rožna
temeljne
##ction
favo
Twitter
posvečen
zagotovimo
sodiščem
posnetke
zaloge
redov
domovih
##danih
predstavljen
vodnik
zahtevali
nezmo
oprijem
dodobra
nadaljujemo
spoznavanje
nenadoma
pav
videza
Hon
##kelj
neskla
operacijski
zlati
vseživlje
vot
prsti
stroja
spolnih
predstavljati
objektu
opremljeni
govorim
Opre
##njenosti
vprašanju
natečaj
odpiranje
arhitekturo
obljublja
skladb
študijskem
Razlog
priporočajo
promocije
konkurenco
uživati
##godek
mobilnost
dostojan
##期香港
##rednost
kart
pere
domača
francoske
okoljske
pisarne
raziskovalnega
fitnes
Gri
vola
hrvaške
Don
glasbeniki
##lle
jasen
kolesarske
##bino
Slednji
oddih
##stimo
nit
Zavarov
##rnah
francoskega
vnu
pnevmatike
John
šoto
prilagoditi
svobodno
gradbi
lutkov
Frank
vesela
##čico
##mala
Dobra
Demo
izražanja
zaposlenimi
storitvami
čist
##ype
meril
Popo
neja
sistemih
samostojna
divji
šu
##deno
soncem
poglede
vzdušju
piva
s10
problematike
Wiki
cilju
81
##GS
##nor
vrstni
okvare
##dnevno
vsebovati
ustvarjalnosti
glasbena
izpolnite
Telekom
Zbi
avtorske
zaprta
preživljanje
sprav
##dnike
##publiko
dvojno
najdeš
Che
##dobna
namena
##žniku
bazo
postavitve
odpirajo
redna
Odgovor
humanisti
datuma
aero
posode
postaj
Marsi
enakomerno
pokazalo
odpadnih
urejanju
##voja
padajo
##tskem
cenov
nesmi
vzgoja
nepovra
Ameriški
Bur
Ose
##AT
seznanjeni
povečajo
##nitvijo
upor
vremenskih
spred
##vajset
vnovi
##klica
naučil
posodobitev
njenim
Cera
najpomembnejša
najstarejših
krila
kakršnega
##zina
otroštvu
##zirali
vprašanjem
kome
dogajajo
##mas
Pomu
365
##stika
telesna
kajne
balko
embalažo
Blue
Kitajske
parkirišča
zanika
občan
znašli
hojo
kroži
Problem
koncesi
paketov
dediščina
Ribni
izberemo
##šti
##44
primor
smučanja
dvajsetih
ograje
##stavil
zdravstvenem
čiščenju
televizijo
##alnim
litr
pojmov
71
potnik
Evropskem
obiskala
trajalo
vašimi
žuže
tekstu
zbral
sRazi
samozavest
nakla
poklo
Popol
zdravstvu
kislin
stvareh
1986
opravljenem
konkretne
Dis
vodili
ustvarjalci
smeh
##lnemu
grebe
nekomu
Gradcu
sfe
##rd
stranski
severni
umrla
popravlja
čista
snegu
okoljih
pogajanja
##DPR
predhodnem
350
EM
gove
željam
železniške
Udeleženci
dostopno
upoštevali
komite
milo
kupcu
##gno
karo
Lani
ane
odšla
akt
učnih
##tnemu
urejene
##mila
podpiše
sklenitev
zavestno
Pisa
vrstami
##lio
##ročni
sPotem
italijanske
##ith
sDruga
Izbirate
novinarski
poudarjajo
častni
sZdaj
greš
obvestiti
Uporabniki
hočejo
dovoljena
načrtuje
hči
nerazu
vozijo
občani
Nara
bralci
ugotovimo
##cijam
##bnim
čudovita
zaposlovanja
ogledati
prepričana
počnejo
rezervo
##seg
homeo
volitvami
Nov
damo
zapisala
glasovanja
kompetenc
uvede
dozo
sMar
predstavljala
Cerar
struktura
neprofi
##KT
realnem
možnostih
sredine
tipkov
pan
##elek
poži
vlaži
stimula
razbremeni
ritem
zagotovijo
zagotavljamo
močnih
vračilo
recikli
tehnološko
Meto
##stavitve
poskušal
Šar
strmo
##PI
##tions
kami
##sol
modelu
dialog
konzo
bralcev
Merce
Lep
pripravite
industrijske
uveljavljanje
sŠtevi
semen
zaslužijo
revščine
##vnico
zahtevka
Hiša
desetletju
najhitrejši
##diji
prebira
prebral
dvorišču
##brska
##darja
subven
partizan
družbah
geode
teorijo
##ženost
mašo
pokojninskega
odpreti
podvr
tim
obrambe
embalaže
brezplačni
TR
kvaliteta
izrazil
zapletov
Veseli
tedno
preprečujejo
uvrstili
prodajne
prenove
##šate
skladov
radijskih
končalo
brezhi
nagradni
kolesarji
rezervacije
navedenega
kamna
Zagrebu
##čba
božje
sNamen
Tina
davkov
osveži
depo
spoznati
zmag
un
##fov
Poskr
namenu
prebivalstvo
Občinskega
Vlade
OB
##cve
zavaja
dodelitev
Všeč
aroma
poma
pogosti
zdravilnih
odprtega
ogledalo
občutljivi
Kate
smisla
deklice
ogljikovih
nespremenje
##zatorji
Met
prikazujejo
##jka
Konji
odstotni
merilu
mojster
Osnovna
piščan
Max
Internati
zmanjšujejo
bolnišnice
More
najvišja
Sprva
##sanje
##rjevem
letniku
pravljice
priskr
sodnega
##bita
energijsko
dobave
verzija
stanovanjskih
##vc
verjeti
Ženske
Vrt
pravici
##fije
Raden
objav
Glavna
stereo
župnik
obrazcu
vodenju
filme
minimalne
kompro
nasproti
neposredne
lesenih
vidne
platforma
Hy
zakonskih
Vide
poslati
potrpež
srednješol
##discipli
Zbra
izsu
vzdrževanju
poimenova
povrne
##nstvo
##UM
jev
gorivo
##čenjem
inovativnih
Ponudnik
ogenj
naleti
tabor
boleče
ugotavljanje
sestanku
obupa
omejen
Trstu
ozemlje
platforme
##JU
dvorana
priljubljeno
##vcu
pitno
posvetili
Washing
pola
##jica
met
črta
blagode
izpušča
dolina
Poročilo
gospa
avtorsko
ukaz
cenejši
glava
preprečevanju
trajala
Hri
prošnjo
vidik
poskrbite
sJu
Univerza
prebivalce
raziskavah
vmesni
nedoločen
Audi
upravnih
osredotoča
poezije
Phi
zahodne
Izdel
sorte
društ
vaji
##fini
Patri
čimprej
negotovo
lesene
vključene
napade
razširjena
obiskujejo
mešanica
##ravnove
jama
narodne
oglas
by
##jenju
nevi
evolu
##nični
polaga
poslop
##jemno
odgovoriti
duhovni
Špan
filmi
usmeritve
Potrebno
nekakšno
podž
Statu
turističnega
Imajo
##stje
##varu
pogovori
objektih
neželenih
Kočevje
nepredvid
zaščiten
mineralov
pokrov
obnove
paz
Belo
vremenske
Hitro
nešteto
##novih
steni
dosego
krogli
pouku
družinam
bakterij
konfigu
lik
mesečni
dovoljuje
avtomobilom
reprezentanca
alo
duševno
pogum
Mac
plesni
računalniki
zloči
faktor
počutijo
verige
kotiček
nikdar
primo
glasbenega
umrlo
odločimo
posredujejo
##sin
kolesarje
koncentracijo
folklo
pogledamo
mudi
jeter
osebnem
angleškega
gne
##но
##liga
debele
posodob
dopolnila
objavljene
planinskih
Njihov
##ktivna
trajnostni
predložiti
Nena
zasebnem
sporazume
Eli
sZakon
črto
evidence
##pah
##merij
izpolnjeni
čudi
spomnil
roza
komisiji
pooblastila
amino
##cipa
Moški
rdečih
sLeto
znesku
petka
medicinskih
smučarske
Kdaj
upodobi
izjemna
obale
##šelj
človeška
##čano
izjemnega
##brov
##mik
kralja
mislimo
nadzorni
izkazala
Varnost
filozofije
vesti
avtu
trud
##ph
načrtom
minuto
tisočletja
pritli
##lska
##lly
svojevr
izoli
gozdnih
Raču
online
raziskovanju
##kani
odmak
investicij
praznovanju
kodek
mogoč
ključa
bratov
zadošča
London
##stiti
##njanje
družbena
seja
##njajo
##zana
##narhi
uporabnih
##leher
študijske
dogovorili
formalno
reka
Ves
priim
obdol
potrebuješ
##skur
##njakov
pripeljala
dojema
opredelitev
tematiko
porno
ada
170
spremljate
zemeljskega
sočasno
inštruk
potuje
##rban
hranil
spoštuje
zemljevi
##kopla
gesla
mladinskih
naselju
tečajev
ljubeznijo
kapsu
Osnovni
edinstven
koči
vajeni
stadi
trge
aktiva
imi
recen
##tirali
sestavina
letalske
najlepši
polep
prečka
##čitvi
##bljanje
zvezda
prijavite
avtobusom
poiščite
PRO
VS
izdali
Poto
Vene
ravnanju
##povedi
veljalo
odstopu
povprečni
zaslonom
čvr
domi
Strate
prihodki
Prednost
srčni
sončna
agencijo
vleče
organizatorja
gledano
Fur
Svojo
premik
presoji
čevljev
ago
obče
konserva
Ravne
gasilcev
odpusti
filmski
blagoslov
ptic
predpostav
Out
##too
spanjem
prevzeti
Herce
opozorilo
##ID
Rade
nogometni
sindikatov
Osta
##bole
aline
Vaš
obdelava
ekonomski
financ
##slom
##limi
##rer
Mode
združili
zastopnik
Drugače
Šoštanj
ZU
bova
##dge
##34
podpisom
odločitvijo
prebrali
afe
##ljni
vrhunec
gradbenega
prekinitev
etni
##75
delodajalcev
Madžarskem
vsebnosti
Proiz
briga
zvezd
objava
plačali
operacijskega
inovacije
DN
##rale
Vrhnika
izbruh
preži
študijski
Antona
industrijskih
atlet
Posla
nobenem
plačal
osebnim
zaključni
sodnika
##OST
##wei
razdra
##rnike
##stavljanje
zasedba
zabavi
pijač
avtonomi
125
vrednostnih
lasišča
planeta
znižanje
mimogrede
prisko
gorah
dvajse
sekunde
AG
prekra
metra
odločba
Japonskem
oživi
##javlje
##pravah
nastanku
sVz
salonu
##js
##las
zagotovite
koreni
povezanost
izhodiš
Beogra
dosežkov
manife
Yorku
indeks
udejstvov
Opis
Micha
daljšo
vsebinami
dijake
krajevne
optimizacijo
izbriše
študenta
sProgram
medaljo
vplivalo
katalog
zimski
ležišče
romana
vzbudi
gledalci
zasnovo
medijske
naročanja
##lizacijo
bolnik
vmesnik
alkohol
Naspro
prag
velikono
okoliških
vzporedno
nadaljevati
fant
Dragi
Facebooku
trendov
##tifici
mio
živih
beto
enotno
ustvarijo
zaključka
osebami
vih
realno
nameščen
uporabniški
genet
poudarila
sNajprej
televiziji
dikta
četrtem
mešanico
cvetli
nafte
oli
osvaja
##ženem
##šalo
porodu
krajine
##zami
zasnovana
žve
prire
prireja
kopal
1979
čebu
obiskati
založbi
budi
##što
prijateljem
visokim
prireditvah
##tikov
nasla
strokovnem
informacijskih
pustite
dolgotrajno
obši
##ravan
živino
poklicnega
##anca
očetov
ugan
##čami
##ovanja
prsi
križu
storite
zgoščen
materialno
fotografija
podaljšanje
sJavni
nuj
papirju
zagotovljena
centimetrov
odtu
raba
Notran
##redozem
terapija
maksima
ml
##nično
kampanjo
mehur
##spi
##znost
Zahod
vlage
Gorenjskem
poklicati
deklet
##BM
Katari
približa
hlad
nevladnih
oživlja
##lskega
nižjih
sekundar
##nie
##lomu
rokami
potencialno
razdaljo
##rino
Rezultat
##dke
ledu
zemlja
davčna
izberejo
naselij
možgane
GDPR
##ameri
predol
meščan
davkopla
##bnem
##vili
##ranimi
kmetijsko
sklepih
ergo
peni
poslala
##ovari
napadov
boleznimi
Ptuju
demen
noro
Atlan
Jur
dežja
potreboval
Insta
##čjih
Postopek
peri
Mojca
dnevnih
sklenjena
sMedtem
sodnih
modnih
##čnic
nadmor
tveganj
zadovoljstva
sklenili
občutkom
kohezi
##zmo
pones
boli
##ženim
Paki
cvetja
Franca
podeljuje
shu
simula
zmanjšanju
##ljivem
svetlobi
Treb
starejšim
##vani
navodil
verjamejo
Postojna
pospravi
Nadalje
Rimu
igralka
obsojen
foruma
brezposelnosti
kakorkoli
teorija
bivši
International
izrael
volilnih
gledamo
Prekmu
##the
organizem
filter
ustvarjalnost
Hrvaški
transforma
NOB
cestnem
napolnje
spušča
posnetki
raziskuje
##giji
osebah
izvedeti
odtenek
Omenje
##°C
glasbenikov
površinah
ambicio
prebivališče
rusko
tiskanje
sPravilnik
MOL
umetnik
navdušil
ISO
zahvaljujoč
kisika
°C
##dig
bliža
zmagala
inovativne
AMZS
aj
donos
obrt
sPov
Izku
barvne
spreminjanje
##25
##jaka
##pelj
ženskih
tiši
Razen
razmišljajo
kategorij
##sign
Der
prosla
mame
zbiramo
izredni
##ming
sra
Zadnja
uporabljajte
Škofja
My
začr
prestopi
gimnazije
komunalne
zadostuje
LC
pokva
okrogle
Fina
premoženj
najnovejših
ostanki
Bruslju
organizacijami
lokalna
usmi
drama
Franci
Die
matu
napredovanje
prestolnici
##jko
gledajo
zamenjali
enkratno
sodnikov
##BC
1500
prehitro
križar
naravnem
inovacij
##kljub
Velja
nedelje
viden
Francije
trajnostno
avstrijski
udeležbe
zahtevala
elektrike
moderno
##swa
konj
Kobari
izvajal
zmanjkalo
školj
izdelal
osvetlitev
##stičen
izbranega
zahtevi
dekorati
Pogle
duša
Vabimo
predstavljeni
pravkar
prevle
širitev
pasto
spredaj
pogovorov
biblio
avtohto
##tics
predča
odprtem
ruskih
približati
naučijo
fantov
očal
prehranskih
Nadzor
nevšečnosti
značaj
sOpis
strast
umetne
pričakoval
korake
pripomorejo
Kali
centrih
dimenzij
nesposo
pomerili
vrtni
prepe
predstavilo
albuma
komponente
povečujejo
##dobni
Tem
italijanskega
značilne
Inštitut
tržno
nastanitve
napaja
ustavili
prebu
spor
Starši
##strom
dolgoletno
spremljamo
nazor
pomembnega
režima
Svetega
krajevnih
##vencioni
idr
špe
Kore
rože
katerokoli
praznika
##OT
uporabniškega
klop
restavracije
##činkovite
odslej
##gelj
Pomemb
živega
produkcije
Barce
Sredozem
##bece
sodišč
##sse
Primer
označil
sodniki
petnajst
agenciji
##čic
##seksu
metaboli
mišično
zrca
##66
##win
sprošču
Slednje
zamenjal
Dve
karak
proste
##žnico
sNaša
procesor
inštala
vitamin
vozilom
opiše
zano
odredi
maju
duhovnik
digitalnega
stanovanjske
navedbah
predpiše
ukvarjal
Treba
devetdesetih
sNekateri
Omogoča
nekih
Dnevnik
sFi
##dki
masko
Josi
SAZ
##naciona
pristaja
##vnici
Vem
prilagoditev
elektrarne
Erja
Skri
##dene
toli
Nahaja
plaže
##glasi
Gosti
kitajski
ustavnega
Računa
potencialnih
nakaza
praktičnega
civilno
vračila
izredne
davkoplačeval
dvanajst
##mann
priznava
ogroža
razkril
specifične
vol
telesnih
omega
pospeši
##čarja
spremljal
organiziramo
Argen
##dva
##rie
##stavah
Sevnica
mladinske
pisala
škodljiv
pošiljanja
zid
prepričati
porazdeli
##vske
##dnici
hodijo
Izberite
verzijo
simptome
##KAJ
najhitreje
Uči
##čut
##fija
knjižnic
pojasnili
verjamemo
športom
marsik
naročniki
masažo
soustvarja
uve
##vila
poroke
izvirajo
##dani
posredujete
odstranite
listine
poglavi
menedže
prikra
limo
Dokler
1988
zaostaja
trpijo
glasu
kakovostnega
matematike
prebivališča
islam
ZK
ostro
toba
Male
gel
odprave
razprava
predstavljali
namig
čemur
odkriti
ohišje
petega
Cel
pričakovano
##javlja
oblikovati
tretjini
Poljskem
golf
liga
Odkri
Progra
Sport
Prve
posvetujte
prisili
prostorni
osrednja
ekonomije
##jze
tajni
Beli
##cijskimi
ohranjajo
ira
##cker
Komen
##gresi
kolena
lokacija
spekta
pogovora
Zuna
oke
srečujemo
zabeležili
smatra
odboru
gozdovih
kvadratnih
ženskega
Simon
sosednji
poviša
Fla
vnet
okoljem
zgornje
navdušila
artriti
sadi
izdelamo
natečaja
junaki
Grčiji
Topli
Gol
daljša
krepko
navesti
vera
##goj
pravilnik
okoljevar
vstopnice
treningu
odhaja
sceno
hle
##ido
##niška
odmo
pošta
poškoduje
pustila
abstra
jajca
ustanavlja
siliko
morebitni
pridobite
sSamo
napravami
glasilo
Čr
##UR
##rela
preime
snemanje
SLS
poletno
občutkov
barvni
partnerstva
ekonomskih
prostovoljcev
najbližje
košč
Mobi
opravljali
orožjem
neum
natančnost
Fakulteti
komponent
GB
sleher
jemati
##mimo
##ruza
112
poglavja
boleze
Soči
postavimo
kopalnico
novorojen
resnica
poškodovanih
osamosvojitve
##KE
uradna
Pogodbe
poizved
močnega
Sodelu
običajne
sOdlok
pen
opravljena
ugotavljajo
živalskih
mnogimi
implementa
##ira
vabijo
stečaj
Prese
opozorili
pogajanj
razmerij
##časi
Tou
1970
odvzem
##rizo
##sion
##liva
spodobi
zaposlu
razumevanju
tod
109
partnerje
družboslov
sDela
sDrugi
maraton
DA
Jezi
duna
zdravstvena
nastopu
posredovanja
književnosti
KA
zabo
Net
kratki
Hercegovi
plov
predstavnike
zanimivosti
transa
Srbiji
prepovedano
usodo
judov
pripombe
hribov
aminokisli
##škom
preseneti
sHi
vnaša
negov
##šenj
Celov
neupravi
notranja
privoščiti
nemalo
utripa
ohladi
natanko
smise
potrditve
prehoda
rade
mačke
tehničnega
dopolnilo
izpolnjevanju
identiteto
kakih
ladja
sOrgani
Dejan
##med
negi
lokalnimi
vodjo
1968
AFP
igno
razumel
realnost
##ročnega
slabost
Dravo
uvedli
skriti
koncertu
Obo
raj
stališč
plast
zgodnji
polnem
produkte
formi
hrvaškega
patri
dežel
vozniškega
NK
##tner
##all
strežnik
naokoli
Upošteva
##ро
nagovarja
ekskur
kompetence
deležen
italijansko
zane
zabavnih
ugleda
presa
spodbujanju
poštev
sposobna
rastlinskih
##vane
razlikov
zameno
generalnega
Okoli
af
oznake
poroko
časovni
preobraz
Sma
##dale
toploto
komunikacija
ostankov
##čile
ustvarjalno
producen
1947
privilegi
##tele
sodelavec
besedilom
multimedi
Tovr
prihoda
reko
skrite
bene
sPoseb
##čniku
želeno
orkester
dizajn
##cor
##vojni
##star
prosil
kartu
##provi
vodilno
##jcev
sistemati
zasedbe
hitrega
blagovna
podeželju
montažo
KD
poznate
forumu
kvan
##ла
##lacija
##lovih
zmanjšanja
navzven
predstavitvijo
##tirajo
dimenzije
bloga
zelenih
hipote
##remo
obvezne
Ford
##žki
Digi
izboljšajo
klasična
vzamemo
privati
izstopi
dopusti
Kralje
nastopom
moštvo
spleti
akvari
privoščili
Znanstve
prenehanju
##riju
Izdelek
nosilci
odločanju
pristopom
##roka
vizi
končnih
gostom
Mitja
udeleži
mladinski
sodobnem
čakali
##non
vzdržuje
Naredi
##ščica
srednjem
možnostmi
posredoval
##ull
vstopil
Jugoslaviji
zamo
uporabljeni
drage
fotografiji
atmos
##funk
##jeve
sprejemanja
5000
postelje
filmskih
EN
smre
Pridru
rešil
koristnih
bali
poprej
##memben
Ljubljan
ocenil
kompa
suha
stavka
rojstnega
sedemdesetih
SU
akta
Drugo
animi
sedanje
##zam
navse
##mbasa
Vprašanje
podvo
filmske
povabil
ustavil
spodbuditi
prihodom
Dana
izkušeni
Cve
Nudimo
Zra
paziti
pospre
spelja
klasičnega
knjigah
ista
sprošča
nasprotov
brezposelnih
obloge
totali
Lea
Pavel
Op
resnične
najljubši
sledenje
##tte
bana
posameznimi
informacijski
##gy
izdelujejo
grafično
teritori
konver
Koroške
Največja
Zdravljenje
HP
združujejo
polovice
prazn
##df
dokazali
Ustavnega
Plo
##stira
seks
ljudstvo
ženskami
zvezek
srečala
črpalko
datotek
##mel
##stavljajo
poskrbljeno
Tho
učni
Štu
##ščani
ventila
sum
media
francosko
zaob
trpi
pig
pomagate
izpostaviti
##vri
faze
neustrez
prenesti
Bledu
zagna
spremljati
##VS
staranja
hormonov
podvoz
avta
Premi
kanal
sSlovenija
PZS
zmanjka
Velikokrat
popravila
Phen
sZanimi
prispevala
zgodovinar
prejemnik
##bije
Razu
vlaken
opravimo
globalni
prinesli
Mateja
priročnik
pridržuje
zanese
Dušan
likovnih
Medici
Pis
##sca
##jalo
trajanje
grobi
zavira
učiteljica
TE
nalo
naslove
plačujejo
vložil
Dia
ostanke
CE
osvo
hodili
Vie
poletnem
pospeše
reforma
skladnosti
Milo
lastnim
živalih
skraj
droge
tečaje
najlažje
tovari
##čenost
vprašali
potrošniki
Pet
elementa
1985
objavljeno
revijo
prikazati
postavljajo
presojo
dobrodošli
Ara
##tičen
živa
zakonski
preselil
Piran
višjega
odhodu
avtomobilski
inštitutu
##MO
povedo
Idrija
MP
opra
##jenim
ved
##pomba
vrečke
World
nečesa
##kič
Potr
sprehodi
zlom
kao
poskusili
kaznivega
konceptu
prineslo
##phi
##močno
##ljice
sZdrav
subvencioni
proračunu
nakazuje
##vode
sNovice
kostu
##ljevanja
povabi
1918
pozdravlja
PP
razgovo
prodali
opravite
##lična
rakom
lajša
stalni
strojni
podiplom
##36
teči
skušali
krogih
##tiranih
napovedujejo
odpeljal
zanimivega
doseganju
izkoriščanje
##fra
pitne
Statisti
dejstvu
lepem
varni
študiral
navdušuje
pogledate
krivde
Tan
ZS
##toka
##dnico
posledico
desetletji
Alenka
GT
Čla
##GB
pravimo
očetu
stojijo
zahvaljujemo
Zemlja
Budi
Tren
konzu
nogi
Kav
vsakomur
pozabimo
pokalu
predvidena
obvladovanje
smeli
vzpostavitvi
prijavijo
pospešuje
počutja
pošljejo
atleti
izognili
Ljubezen
##torija
##bič
poškodovan
kaznivih
spekter
##stein
pomembnejše
sLi
rednem
nadstropju
diskur
kipar
lastnikom
najboljšim
kvalifikacij
osumlje
##tej
veje
pridobljene
brsk
Mira
iskal
Wo
##strani
##sur
trdnja
pravilna
ureditvi
sKadar
kanalov
previso
PDF
Dro
razsvetlja
modne
nastanitev
prilagojena
navajajo
Najpomemb
izjemoma
##rele
Nikola
medicinsko
seštevku
priv
Nepo
pokličete
desetletij
obiskuje
znašla
preostalih
Črnomelj
tednom
tempo
čita
diplomat
Dunaj
referenduma
menta
Bele
raziskovalni
interesi
opravljene
##56
služil
umetnih
odsek
Jezusa
naštetih
kraljestvo
Zagreb
ušesa
zaščititi
uredba
ravnotežje
##px
##ney
##dinami
svetniki
##nesan
uspehov
sok
##gorja
študijsko
naročnikov
aktualni
tehnoloških
Avstraliji
kratka
dobilo
račune
oblači
dogajanju
funkcionalnost
revizijo
##tter
##arch
Načr
tribu
vplive
neprecen
denarno
platformo
vadbi
dobrode
Les
organizirajo
prepoznavnost
##ffe
sprednji
količin
kaznov
Šmartno
##jim
mane
sObve
subvencije
nastavite
možganih
epizo
prijavljenih
Volkswa
inci
odkrito
strokovnjake
Play
hidratov
GPS
##dski
libera
posegov
Višje
zimsko
podpla
telesni
drugačnega
najmanjši
Park
primanjkuje
Nis
##jice
##kovni
povečanja
##ziral
DE
##ritvi
tola
vzno
ange
članicah
tretjič
lepši
objektiv
revolucije
šampon
##our
trendi
Prihod
instituciona
divje
TO
triko
##far
stavek
vračajo
vesla
časopisa
načrtujejo
hočeš
jugoza
Žalec
letalskih
##ward
lasten
odstranili
##žke
rešitvami
zlate
##talno
sklepe
mreži
pevski
##metna
Velik
vizualno
oprosti
nakazi
ciljno
tekočega
ujame
šef
telefone
izplačila
YouTu
Mul
Stu
neupora
mojstri
ponudila
okoljskih
podpisali
##zoren
parkirišču
slikovnih
pane
volja
zasedbo
gostovanje
drobno
koda
širom
vplivati
ocenjevanja
Ekipa
Sho
out
##ak
povprečje
agencij
zavedanje
##gniti
endo
filmih
šmin
##rira
##ljenem
uživamo
delimo
zbole
Kandi
zunanja
pridelave
Verjamem
napro
krije
sKmeti
podjetniške
pripisa
neči
oktobru
Kraje
uveljavitvi
##banje
jesti
pomembnost
Prosimo
kovin
diri
lotil
voditi
tradicija
tretjina
pripadniki
vgrajen
dolgoročne
vzdolž
morna
izdelati
prilagojene
pete
##snil
Republika
##ratu
praši
učinkoviti
sprejemamo
360
pože
oblikovan
gimnaziji
karakteri
nade
##lami
##tic
izgradnje
dirk
voditelj
organizirala
JA
toka
sSklep
primernih
Splet
udoben
računalnikom
skrivajo
najvišjih
Takšno
sindikata
odce
zagotavljati
operacij
osup
atri
zvr
posebnem
sedeži
zmerno
gradbeno
Black
modrosti
pravosodje
AP
idili
Dam
zasvoje
akredi
medicini
ap
##uer
##račun
Tržič
sEden
komentarjev
solidarnost
rame
Poso
uporabljena
##IA
fizičnega
posodo
plastičnih
istoime
domovino
fleksibi
poo
odgovorili
razširil
Zakonu
sevanja
sodba
modra
ustno
brezplačnih
prostovoljci
popravilo
kne
brskalniku
prika
podobnimi
popraviti
vzamete
##redna
povprečja
premagal
rane
preprečili
nevarna
Natan
dono
obrača
sNekaj
literaturo
srečamo
##gosto
sVpra
1987
uteg
Gorenje
marsikatere
materialne
ležišča
Pal
izboljšanja
srcem
Aziji
ška
kadi
občane
tanj
odnese
razbu
vojski
sSko
sprožil
nesrečah
planetu
informacijah
tretjino
pustimo
izjava
Lendava
nai
kota
sigu
##šolcev
navdi
poklicni
upanja
sinh
Hr
##nktu
trženje
bolnika
odrašča
imenovali
pridobljenih
licence
nasa
moralno
Nina
##žah
sklepu
posvečena
1981
upravne
vodah
Vzpo
mnogim
duhovi
1978
izdeluje
neizo
obilo
nesprejem
medgenera
nekam
srečanjih
čudovitih
hrup
domnevno
poveljnik
veden
cikel
ocenah
spomine
čakal
skupinam
Madžarske
stiske
Mün
Slika
ubra
dopri
naredim
izvirno
Upravlja
##splo
##ljaj
povezanosti
pričakovanj
televizijskih
odigrali
##dža
##grada
##žete
Dober
prispeli
programskih
nepremi
strp
hrepene
Hel
učili
lasišče
##dakti
Cro
ljudskih
štajer
realnosti
Šarec
alpini
povezali
resničnosti
prepozno
zemljiško
prestavi
napadi
angleščina
ministrica
##čjem
paro
Zas
pridobivanju
gledališke
evidenco
razumljivo
bran
sramo
parov
druženju
Pozi
sDr
nagradne
sBrez
1984
Škoda
čestitke
##FT
##anti
prefi
prestra
stotine
police
spoznajo
najbogate
definitivno
##ан
sAmeri
mentorji
aktualna
usmerjeno
##ms
prikoli
##ščenega
avtom
naročnikom
predelavo
Okra
pridobiva
gorskih
off
odsve
dostopnosti
baterijo
vpisal
nadaljnjih
menjavo
kontrole
voka
hrvaških
1961
Tanja
##tta
predstavljene
Napo
Predstavitev
porabijo
spanec
obveznega
marsikateri
odpravijo
ohranili
sodelavce
kost
makro
zgodovinskega
Otrok
inženir
spopri
ustanovila
kakršna
Oglejte
ugovo
obvestili
prenosu
ujeti
raznolikost
misle
Živi
Kongre
opaziti
statistike
zaznamuje
valovi
ozdravi
lastnike
soglasju
##rci
##čiš
zdravilne
okusu
izkopa
prilagajanje
##ер
nekdanjih
socio
##1期
športnik
aktualno
Tor
Trst
Vrhu
trgovanje
koloni
gozdovi
surovin
Čer
##erar
##JI
##dika
mozai
hoditi
sprejemanju
pogledih
##števil
trditve
Jernej
##bolje
Obvesti
zasnove
kvalitetnih
sZače
zadostno
Nau
državljane
improvi
ponovitev
Mednarodni
##zde
##vce
##dalo
veljavne
pravoko
pišem
dopolnjujejo
##terjem
##lniški
telefonski
razširitev
105
srečni
Svetu
usmerjen
Ljutomer
##JS
unijo
Lojze
natančen
režiserja
zapelje
##mernega
posi
Deže
socialnem
črte
upamo
nanese
##dobe
##šitve
##terju
slašči
literarni
reforme
nazna
Rast
kip
Tone
Preda
novome
Razvoj
deželah
poškodbami
musliman
ilega
##lki
posle
srčnega
pokojninsko
eksperimenta
Van
oste
župnije
tečaji
avdi
večjimi
##way
Šmarje
##HA
cik
trage
neprimerno
Bratu
koza
pričajo
vsakdanjega
izkazali
##nam
##tico
lai
razv
fazah
zbrati
dopolnitve
objavljenih
temeljni
dosežki
divjih
stopala
Stru
menim
stali
pika
sporočite
zadosti
krizi
članstva
sekcije
Država
scenarij
vložili
piškotkih
lažjo
razje
obveščamo
podala
ocenjujejo
##krog
filozofijo
presegajo
počas
naučimo
nogometu
ukraji
##pav
drsa
odgovorne
##karji
Pozdravljeni
ac
##žanju
##dobne
prestolnice
zor
##kujem
hudega
domene
podajo
garancijo
posojila
##maj
odla
vodstvu
##vajte
sveži
##pliv
ugoden
komunikacijskih
zahteven
električna
naslednjič
trop
blešče
##rnil
ugodna
konferenco
##stanovanj
TUKAJ
maske
likovne
pnevmatik
##terapija
privar
ciklu
dobrimi
kolektivne
doplačilo
huje
##Ob
moška
skušajo
septembru
zagotovljeno
izjeme
predelih
predel
delovali
Reci
sRes
zasedel
posnel
Word
Šentjur
kipa
mega
Pokraji
finančnem
odšteti
##zda
##tamo
planet
informacija
pojava
izkoristite
konoplje
Zgodovina
emi
tržne
##večjemu
enajst
Izrael
dle
om
##koliko
preka
Odgovo
nemščine
poglejte
podpisala
naknadno
Švici
##loško
Mala
nepopo
zanesljiv
Blaž
tujcev
SO
nadpovpre
meseci
krvnih
vzroke
pooblaščeni
##kamo
peci
oknu
uspeva
seznanjen
milijoni
vstopnic
izklopi
vzhodne
znanstveni
vrhun
podprl
diha
instrumenta
avstra
prived
medo
##piranje
mai
narejeno
Stop
ponedeljka
ribolov
Ly
stroških
informacijsko
občutljivost
marsikatero
organizacijah
##pravek
deliti
svežega
psihiatri
morata
cikla
vsakokrat
globlje
uporabnost
žli
sestri
##rup
sVr
Cvet
ospre
svetujejo
pozdravil
naslo
roba
nočno
Bela
hladne
kokos
Grosuplje
šolstvu
ruše
enakosti
##šak
lastnem
##peljati
Ekonom
Indiji
izbora
testa
podna
kontinu
starejša
servisi
profesionalni
rokodelske
prepričanja
ravnati
preseneča
obrokov
reagi
predelave
OK
##reči
##mernih
zaščitno
koncertov
VEČ
##reh
##stvena
##čevalec
mrtvih
##gin
sMorda
jezike
retro
vključijo
delavcu
uredbo
Kal
##geni
vrtna
zavezu
pomočnik
praktični
zvočno
pogledati
##rete
##tenih
##velj
prizor
1944
##38
svoboda
spreminjati
najbližji
vratih
izgubijo
zgraditi
domačimi
dojenčka
emo
##loški
##tane
skušal
prodati
vertika
sorazmerno
kolega
mrtve
psihično
gravi
von
##ščenost
političnem
pogovore
ogroženih
PU
obletnice
Radovljica
##fek
sLo
obravnavati
situacij
kataloga
komuniciranja
mislili
celovite
A1
et
Možnost
pošljite
malico
kontaktne
pacientov
dna
Teo
športnike
pomisle
kmetje
2x
ora
Američani
poročanje
stopenj
enostavne
Inštituta
Adria
hro
zmr
žil
Dogodek
vlago
lastnostmi
sijaj
##FA
razteg
Mai
minuli
morebiti
1982
najustrez
maščobne
prepa
mejah
traku
tovrstni
set
nadgradnjo
##vanji
PC
sledimo
bolnike
literarno
tenis
gardero
##ujen
Občino
##ološke
izvedenih
dialoga
Tradi
##GO
lastnimi
delitve
aposto
strokovnim
čudoviti
posledicami
prodajalca
pozabil
Spet
##nden
vrtcih
Berlinu
vajo
trenutni
regijo
navadni
napoti
prazniki
dinamično
tipe
kakovostjo
oblikovana
obnašanje
nakit
##mera
##lub
pripravilo
Gasil
literarnih
nogometne
merilih
revij
množica
potrditvi
Frančišek
počakati
razporeditev
##teme
avgustu
##qui
Sony
##valnem
kampu
študentskih
stavbnega
delci
upravljavca
verodostoj
##ncu
jasna
povečanju
napredne
dijakom
tujem
kislina
sodoben
ustvarjati
mislite
navedel
deklica
Gal
##miti
razredi
ustvarjalne
zaposlena
preprostih
plaka
narodi
narodnega
##žujem
nestrp
perspektive
čol
##ovan
##merni
prijava
kazenskega
Čudovi
Črna
stopal
evropskimi
Piškotki
inciden
PE
##tove
##gami
pregre
določenim
ospredje
War
##JZ
slovesnost
sten
hodil
sNaše
običajni
elektriko
predvideno
testiranje
vezane
izteka
sNova
skrbimo
aparatov
obrti
ego
##jca
##gs
##čevalni
##sic
baje
medijsko
majhnem
oglase
Akti
pobira
sOseb
sAn
pismu
izvor
močnejša
zaprtih
strojno
nezave
##tla
##teka
večernih
hišah
##tti
divizi
predlogom
PA
Wol
##nora
Zapo
daljših
kritik
Branko
salon
Dav
Želimo
preteklega
podrobnost
zahvalil
RE
dam
razpad
Marka
formule
ladji
##erarhi
new
##zati
mestna
Spodbu
pričetkom
##čaji
funkcioni
iznaj
##rus
živim
Moskvi
načelu
Države
ekološke
##RT
preživetja
študijem
poškodoval
banko
nizki
prebavo
razpoložljivih
##zane
Dostop
fede
##ksio
rokometa
smučarski
dejanskega
Dani
Ormo
fotoaparat
združenj
železniški
podprla
obiskovalec
kapacitete
juniju
Smi
enost
jami
hitrih
najmočnejši
demonstra
primanjk
redar
organizacijske
##pot
zdravljenjem
poklicev
sani
spopad
nacionali
##lita
##loške
konven
Java
klubi
##fikacijo
pisme
##INA
with
##oki
devi
##redne
obsežno
jedru
programska
##dine
Zadnje
##tirati
izposoje
##IL
soži
volji
podjetnikov
luknje
zasne
##box
Zaklju
rokavice
nadre
omenjenem
sOdgovor
Fakultete
##kanu
celu
urejenih
usmerjene
prihodnjem
Tolmin
##stiko
jogu
neugod
Fan
Tja
##ach
##dran
##32
razstru
izvir
ponudnikom
borcev
najpre
##kovost
prehla
seksi
tvojo
sLjudje
Auto
utrujenosti
znašal
sVčasih
Barbara
##alom
lastna
Sti
kvi
popa
oblek
##venciona
##ljani
prihodnjega
##strukturi
komentarji
premagali
britanski
##BO
##žnici
novejše
usnja
konkurenca
spoštovati
Številni
##3期
aplikaciji
vzdrževati
trudimo
kolesarskih
##stovolj
računalnike
učenca
hrvaško
podelila
Nizozemskem
Jen
##mela
preti
sToda
samostojnih
Analy
zakonodaji
GZS
email
alineje
Razstava
trudijo
mehka
najpogostejši
nastopov
Naročnik
Fin
sort
##ping
##terapijo
##formi
Studi
##SUS
dodela
Prizna
skok
želeni
nasprotni
spominov
dejavnike
tiskovne
##čić
čebele
stabilnosti
##berta
učiti
prepričanju
telefonske
pojavile
angleščino
Madžarska
zastrupi
##vcem
borov
pogost
s12
Raziskave
renesan
##alcem
Seba
prostorske
trajal
hrbtenice
##ovom
##vnika
izpostavljenost
zaustavi
Takšne
dovrše
##nologija
društve
Media
upravno
raztopi
Pale
zmanjšal
oddaljen
Tretji
ponudniku
šestdesetih
pomirja
registraciji
Hil
Kolo
hišni
avdio
1960
podnebnih
enemu
Napa
skupinami
medijskih
predstavijo
Jose
tvori
##roki
malem
študijo
zmogljive
manjšega
voditelji
Predstav
tehnologiji
ustaviti
odstopil
##49
Večer
omogočala
dokazati
vnosa
pritegne
SZ
this
ljudsko
ljubiteljev
prestop
##bour
dobim
Nima
povzema
prepričljivo
Krka
flu
polnega
Medobči
Stani
obože
bolnišnico
golo
sSpletna
vložila
##perto
koncerta
##čevega
taksi
poznana
župniji
Splošno
ladjo
##mnik
balo
##terapije
inva
motnjo
praznovanja
##gni
vzhoda
Institu
spletnim
sObstaja
živalskega
sklicuje
stezi
zabaven
koncepta
##njah
pene
odkrije
neokr
ZI
paše
veljavo
vplival
mladostnikov
##tivo
##ravni
motornih
prtljage
ambasa
Bili
Group
##ganistan
Nare
dobrote
košarka
1885
Benedi
Oto
sZah
dobrin
opekli
ugodni
nobeno
tkivo
##cript
##fre
reso
##alnost
diše
sSkup
policijo
##plačni
faza
Varu
ravnatelj
pritožba
Prakti
zapisnik
pravilne
prostorom
nastajanje
##novem
napreduje
neznano
naveden
Osnovne
polčasu
nebu
nositi
uresničevanju
izbris
prevladuje
poživi
instala
##denih
nesta
sive
zgradba
strokovnjaka
impresi
pokrovitelj
##centri
slišimo
morskih
Marjana
kovan
##est
##psi
lahek
nizu
huda
vojnih
uvedbi
uslužbe
Anali
hvali
iOS
žlah
##ola
##dle
občinska
širijo
organizirano
domačim
Geo
strategija
Gornji
vabilo
Hrastnik
##mek
vzpona
produkcijo
registracije
Srbije
##kopa
določite
izločanje
sprostitve
odločilno
dosedanjih
antropo
poškodbo
zapestni
diplomiral
signal
parke
trenutne
kandidate
##posleni
MBA
zdela
spominjajo
sPrija
zbrala
italijanskih
nastopajo
##ljajev
razmi
sPla
Leo
sUdele
##forman
1975
davno
##nson
Takšen
Jel
pomenila
gine
##tiral
izročila
bonite
posegi
bogastva
spodbude
dobavo
##7期
vseslove
stalne
startu
sSlovenski
vodnega
##cept
Murski
navsezadnje
ugra
ljubo
kakovostni
tvor
razširili
izrednega
prehranjevanja
poša
cestnega
Poči
uporabljen
tridesetih
itn
nadomestil
mehanizma
razlage
testoste
SF
prostorsko
nosil
hero
bazenu
Ken
pato
vidna
letali
resnih
samostojnega
sindikati
avtomatično
##ljenim
##šice
porabili
zaz
sobah
volilno
1974
fakulteta
preverjanja
terjatve
razpravljali
prigriz
istih
Kranjska
Zoran
odtenkov
ledvic
holesterola
##imu
sMno
skladišča
##2期
##mara
Zasa
tud
šop
razumlji
vzroka
avtoceste
turbo
spregovoril
Komuna
celove
##mand
usposabljanju
oskrbi
Novost
Pin
Str
##资料
smešno
plačilni
bivše
Tim
slova
Prispe
organizma
Preprosto
Big
Kitajsko
živahno
sim
razširila
občutljiva
takšnim
ukvarjali
začetnih
grozi
zasluge
##valnik
didakti
##bližno
Domov
zaposlenega
obiščejo
razdelili
che
krogov
metodi
Skupna
zunanjimi
Alex
dlani
##acijo
držati
boleznih
priznal
priznani
Zavodu
hudih
Čo
kovine
odpravljanje
gola
plačevanje
enotah
vodilna
potovanj
1972
sceni
##aa
##leni
##dino
##memo
1950
delili
zbornica
Uredbo
avstrijske
dajatve
Zahvaljujoč
sram
##likih
##diš
šestna
igralni
čigar
študiji
DO
izdelkom
sladka
izjavil
omare
erek
##tnejše
##hinja
časovnih
motivacijo
izidu
izlete
nomina
Sever
korakih
žari
AD
zapisi
takratni
Pop
##rjenem
stoje
učiteljem
operaciji
upravnem
deska
Zašči
zmanjševanju
poklicu
človekovega
preizkusiti
web
alpinisti
Sežana
temah
##pič
vrši
Intel
fazo
spoznamo
zmanjšalo
debelo
Kristusa
##6期
priloga
tel
copa
prebrala
trende
##wood
vise
mesečne
srečen
tečaju
lahke
##tnejši
sPrva
sZgod
predlagala
vesolja
sKnjiga
mejni
svetih
reprezentanco
galerije
Posebna
bun
senci
##krivlje
hobi
dejavnostmi
Far
škro
vsesplo
##rasmus
vključevanja
Druge
odprav
dejanske
dobile
voznike
Borov
Ren
zaloga
##valih
DeSUS
zidu
diploma
počnemo
inženirji
##Point
##šnem
nespe
##ktivnih
##valce
štirikrat
zmagovalca
vesolje
zime
##dstva
sade
štejemo
politikov
daljšem
kvečjemu
##presijo
Nepre
sproščanje
opremljene
Šentvi
začasne
obnašanja
založbe
cesarja
##plu
kofe
detekti
lajšanje
##pisno
##pak
##datkov
Jeruza
BiH
tovrstna
sSem
pošiljke
obdaja
##štvom
počutim
Afrike
orkestra
začim
spodnjega
tretma
1943
dajatev
OZN
##ISS
vinogradni
Ah
Hla
Up
vklopi
##TER
##cina
tehnološke
kliknete
Tar
##ль
gledaliških
kopijo
analizi
nekakšna
privr
manjšim
opravljen
izsled
nepla
Vaša
1983
revizor
Cerkvi
absorbira
domove
funda
vaku
Dose
tradicionalna
pozval
usklajevanje
Eu
meter
Predvi
Anže
posneli
ptice
Angliji
##ire
##war
dežju
tone
vrnejo
ben
povabila
smučišča
depresije
rasi
##kovanja
prepričal
##čenosti
##ljan
Mednarodnega
##tio
Božji
Deluje
gren
##ranu
izrez
progo
maka
uživanja
trgovci
Splošni
pridobljeno
ham
pdf
vsebnostjo
postavite
uresničitev
ljubljanskih
letalski
razteza
Gledali
topel
podati
zmorejo
spodbujati
oskrb
zavrnil
Kakšna
Share
Preverite
aro
eksi
##tano
čakati
Rdečega
##ет
močnim
pripovedi
dvorišče
dosežen
pridobimo
Niko
NATO
ukvarjamo
konop
solidarnosti
določanje
veljavni
petdeset
njegovimi
sFran
gospodinjstva
##stke
Motor
Mil
vložek
AV
IC
letovi
odličnega
odzove
pester
naložba
kislino
poglavju
##28
izpeljali
goo
pirami
hočemo
prejšnja
kredita
nerjave
cenejše
spremljala
pogodbenih
temperaturi
hčerko
kotu
glasno
skladba
zanimalo
odzvali
Internet
poiščete
PVC
MB
opr
##rnikom
skladbo
družinska
univerz
bližnjega
gradbene
preglede
plešavost
zli
##stove
zakup
poslovnim
Želim
sRu
namestite
Soboti
##solven
zakra
##ženimi
starostne
pogledi
korenin
dokazal
poročanja
embalaži
1x
vodno
vrtcev
teoretično
odbi
rezultatom
poklice
plastične
prevladujejo
desetimi
sestave
mobil
##ževanju
čistega
omejuje
nepoobla
organiziral
severoza
dno
omogočamo
razvitih
zavodi
indika
kartica
presoje
otvoritev
Trža
Česti
geslom
prisotnih
krajšem
proizvajajo
nezažele
korupcije
kontinui
Shi
vdo
izstop
pero
učinkovitega
akademije
civilizacije
##IF
ohranjati
##NIK
balkan
kazalo
propagan
hrbet
van
Veče
Morav
zasedanju
čakala
odtenki
upira
##menjujejo
vprašati
huj
tkiv
ocenili
okoljsko
kosila
Idri
##sede
podu
##dobij
preselila
navdušena
začasni
koalicije
hčeri
Kli
##znosti
##yja
##blju
veljala
Gaj
naučila
pozitivni
masaža
loteva
izvajala
individualne
treningov
CA
oska
držo
prostorski
ponudijo
1946
prebrati
dioksi
sDelo
Centru
kakršnokoli
Večinoma
dokaže
virih
konvencije
hipno
policah
Prodaja
vzpostavili
živalmi
olimpijske
obolenj
ast
sklenila
kaznivo
Španija
zbu
##fen
##dlje
veze
predčasno
predvoli
Doku
Odbor
koledarju
sVsako
sče
bog
predpise
kakšnim
profesorji
##4期
kose
srebra
izdelano
1976
reguli
##sah
prihodke
turizmu
podelil
odvetnik
##ročnik
spolni
petje
ročne
dobiva
krvo
##ološko
sHo
baterija
Moto
izpostavljena
običajnega
Staro
Trži
osnutek
učil
hierarhi
kakovostna
kvaliteti
gostilni
pokrajino
Krva
##sali
enakim
portugal
ugotovljeno
##lizacije
črevesja
najnižje
potujejo
##vina
neba
108
občuti
preverili
napisano
upokoje
Srednji
Agencije
narediš
seznanil
nasprotuje
s11
mladoletni
gozdove
destinacije
well
##ны
##snila
Sol
servisa
ekoloških
bistvenega
centimet
ansamb
##zla
svetnik
spoznanje
Fire
padcu
beleži
##ovim
največjem
volilna
odkrila
tožilstvo
Uroš
Im
modi
tvojih
dostopate
gluko
Klasi
Klub
sno
Mr
razku
pridete
močmi
piškotek
določbah
##EST
pokopališču
rekreacijo
obremenje
##cture
##ljanje
##zemelj
Založ
izbirajo
državam
temeljna
Video
izpis
beri
dolžna
hujše
220
izvoz
privolitve
širšega
domišljijo
Kidri
vsakodnevnih
Pahorja
toplog
izoblikov
potiska
135
označena
privolitev
napisati
fru
##tagoni
obred
##stin
##ston
glasovanje
udeležijo
čutijo
namenila
ultrazvo
porekla
obdobij
##rjenosti
sodeč
organiziran
kolesi
uporabnosti
predpisane
ambien
dogovarja
piko
Bohinj
##kopi
vega
sPomembno
majhnega
hlajenje
zajemajo
##atu
##Bo
odjavi
poznal
občinstvu
Njegove
povrh
modula
##znim
občinsko
Golo
učinkovitih
starostnih
močvi
neoli
počitka
zunanjim
mandatu
Bistrici
ptu
##pozna
pranje
potegne
izvrstno
dokumentacija
predi
##rjenost
Davi
kolesu
pridobivajo
plemi
Vsebina
poskusov
koraki
pešce
sanacijo
požara
adap
Erasmus
##liam
stadio
protivne
medija
prijateljstva
stekleni
znajdejo
pregledov
specifičnih
učinkovitejše
ponesre
##cvet
moštva
##ters
skupnim
sNad
##grafski
kolesarski
She
##JN
jamo
rezultatih
izobrazba
humani
beljakovine
samouprav
##čnike
Lev
Lau
večerja
##date
obnese
Pona
Profe
preprečevanja
sosednje
Najboljše
revolucijo
Nadalju
##xu
peka
rod
posamezen
Julija
društvom
Mercedes
glasbenik
prometna
usmerjeni
namenil
kabine
##raž
sTr
Francijo
##ološki
grafiko
črpalk
profila
Banke
##ли
zraste
značilen
hotelskih
##RU
##ür
priklop
letošnjih
članici
napredno
##top
poučevanja
trajnostne
vrednotenje
obrnite
##čnite
pisarno
okužb
prezgod
vodovoda
el
sPove
Top
storitvi
lokacij
sončnem
Los
igralcem
katalogu
kolektivno
wor
prei
večih
cenijo
##povsod
gostil
avstrijskem
licenco
poglablja
##tooth
Skupno
debeli
predpisom
žile
##kajte
##rnic
strojne
navpi
oznaka
Zbo
živce
pravnomoč
vzamejo
nedvo
dovze
abece
fer
kapeli
Sh
nujen
zgu
##nat
Koli
spomini
odstranimo
planinske
tehnološki
kazensko
trebuhu
zajtrku
##kovec
užival
Kučan
grafične
pohoda
##činke
vidike
##atlo
biološko
Informacije
##rjevih
pul
vetrov
Maro
Bernar
počeli
paste
vsakdan
Niti
literaturi
izkazuje
osteo
laki
večstanovanj
Pono
organih
končana
Diva
krajša
sNem
razmišljal
moškimi
založba
medsebojnih
Litija
rumeni
gledam
ankete
poezijo
natis
kakovosten
črnega
Nogo
nadaljnjega
Cre
Kup
rajši
bral
preprečimo
praznikih
##ep
##ratom
izsi
##mali
podra
maše
potencialne
1973
CN
mejnih
širino
domišljije
##čle
##terje
enakega
Stara
telefonska
pospešeno
kapljice
Ogleda
##kori
organom
##urs
klav
zločin
pogledov
kratkotraj
zle
izboljšala
mišicah
poročal
statističnih
rezervacijo
##lex
gala
prazno
naročili
tekmovalni
ameriškem
sindrom
##9期
prive
##ščenosti
jasne
udeležite
premore
prijetna
pomnilnika
vpe
Dodat
navla
kvalifikacijah
CB
kvar
zaključuje
revijah
verskih
Berlin
tovarni
tvojega
pore
navkljub
Janko
tamkajšnji
450
##ges
znamenja
sDne
##krep
sklenjeno
predviden
1948
sKmetijske
nadzira
človekovo
Rudol
gradijo
široke
stopila
##dji
balon
anksio
odkritje
reševati
doživetij
##vor
##peri
Krki
energetskih
inšpekto
jemljejo
katastrof
##IM
##poste
rešujejo
zgodnjem
Inte
izobraževanj
članicami
nujnih
umetnika
prilagojen
aparata
##Na
letošnjo
okon
omejene
Lou
občutljivih
Trubar
transakcije
tabele
##rjenjem
okolica
arhitekt
dihanje
Zagorje
Unes
##kakovo
##rant
sPra
trpljenje
pitje
prevodu
poslušati
škofov
srednja
veljal
primernega
izkoristil
prenesejo
sinhroni
celote
domačinov
goricah
jezikovne
sorodnih
artikel
sopro
polnjenja
1956
Celzija
Is
Nekoč
cerkvijo
napredku
razdalji
navodilih
vrstniki
perilo
ligo
vidikov
pohvale
atmosfe
##ročne
vzme
udeleženca
izpostavila
izteku
Aleksander
pomaran
ustave
##21
vio
pravilni
dvanaj
pisatelja
industrijsko
substan
upoštevanjem
papeža
slišala
škofa
slovenskemu
koreo
nedopu
bojijo
Zavarovalni
Ven
menih
poročni
spraviti
##gia
temperaturah
žalostno
premagati
Ori
ožji
pobere
115
uradnem
odvijal
zagotovilo
koristna
sovražni
pričakujete
ritmi
Umetni
##ee
iztre
odvr
Trg
navodili
prekinitve
##ljenimi
skulp
osr
178
preizkusi
predavanju
kronične
razdeljena
##ganje
pare
tabeli
##pala
Preizku
uradnega
priznana
iščem
nisva
##qua
odtenkih
Biz
##gonu
Rado
oddati
teoriji
spust
sFo
naključno
preiskov
reperto
prispevati
Planet
agrega
##janju
##hote
regij
spoznavali
opredeliti
AMD
Wikipe
apeti
simpo
morske
merilo
vzpostavitve
nepravilno
Uvo
steri
končna
perio
znamki
konstrukcije
gospodinjstev
božično
stabilno
##ZP
razni
globali
štirikole
pozitivna
orešč
Spletni
Pay
poznati
klicev
pojavili
financira
preventivno
Dobrodo
##vič
topla
popolnega
mislila
največjim
##fur
##tostjo
oblikovala
fizike
vodood
previdno
ploščic
čokolade
dirigen
##slovi
##dko
prestrukturi
jah
##pus
policiji
stisk
italijan
železnice
dirkah
izjemni
razpon
članki
različic
pooblastil
globino
vstopom
naci
odličnosti
sPripo
proizvodnih
Eva
##xt
##jel
##jon
##silci
projektne
najučinkovite
poslabša
legitim
##kovno
##zerva
navadne
Večkrat
poslanca
izpostavili
profesorja
generi
neprekinjeno
fro
##78
##stičnem
Siriji
črk
standardom
Zahteva
spolov
prste
pričakovanju
Štefan
##diatri
Sonce
Član
zalju
zavaru
dejanski
zaščitne
kupujejo
razširja
uvoz
lek
cveto
izprazni
abstrak
neposreden
Fili
boljšemu
norve
kriterijev
Visoko
Izved
Anka
reševalci
sLetos
usoda
##jevanje
##alnosti
steroi
dosedanji
jeziko
spremembam
nadaljevalo
Zagotavlja
kronično
Funk
##skovi
zastavo
obudi
biva
udeležbi
prepoznati
nakupe
zdravniško
Kalifor
##ovana
kraljev
medijski
verjeli
žalji
##Hz
namemb
peč
dolžnik
Saraje
naprednih
Strokovnjaki
karose
koncih
Sami
Druži
umetniška
medicina
pritožbi
spomnimo
Zim
varnostnega
povzročili
upravičena
avtomobilskih
nameravajo
pravicami
dnevna
vzorca
manjšimi
zanimivost
kosilu
Urba
najstarejše
umesti
zavarovalnice
des
gorski
protokola
varian
##čenim
Poi
enotnega
Mimo
pevka
komentarje
opazovanje
intelektualne
ss
podpisu
##tveni
notar
čutiti
prekora
potrošnika
opazila
zmagali
izkoriščanja
gostovanja
amater
imenovanih
nedelja
najame
obme
##minu
slabša
najpogostejših
instrumentov
Ure
Šti
##koga
##meren
prog
prejetih
urbani
spošt
##bnika
Javnega
trgovec
##šnice
standarda
splošnimi
navidezno
dvojezi
Budimpe
##图库
trd
lotila
majhnimi
ljudski
gledališki
prepoznavanje
minimali
kalcija
##ševati
tujimi
ovin
izpitu
domovini
Dy
zalog
priloge
##mine
Navo
mnogokrat
borzi
majice
paj
##ščenja
vozovnice
Izbolj
oblaku
klobu
##celj
prevozi
toplotnih
1977
cvetovi
natečaju
Pariz
##talu
##kšna
Ljubi
potekali
dogodkom
grožnja
prepoznali
hranimo
osrednjem
plačevati
em
##poli
##novna
dnevnem
sSu
napačne
izposojo
neželene
##tiv
predsod
skrbel
sČa
##mislite
1971
neodvisni
nikomur
ekosiste
##uvr
postavljeni
kitajske
bremeni
sPonudnik
sigurno
oblikami
Republiko
strinjajo
zapustili
sedel
nese
predhodne
##tekla
sDob
omogočal
pridružijo
pravljic
medsebojne
lekarni
ost
pobi
igrač
fosi
programski
simboli
spomenikov
prizorišču
Akademiji
##yle
šesto
Prito
voziti
diabe
mlečnih
zapustiti
padavin
Vipava
##tat
Nava
Najviš
mladinsko
konkurenčnosti
stopili
povzetek
ikone
lepoti
##zijah
odvečne
##nične
Pau
Tivoli
misliti
obleka
Parti
Hua
dostav
vaja
postavitvi
dokumentu
blagajni
gasilskega
pacienta
obrnil
raznolikosti
##škodova
##spodar
hekta
široka
plačevanja
Web
logoti
##čanih
svetovalci
lastništva
starostni
potrebujem
tradiciji
ustreznimi
Išče
RO
mehi
1920
dodatnimi
Rich
odločali
impul
Šiška
##hla
##kemi
##skali
##fil
voziček
sprejetih
izrazite
večeru
čistilne
sklica
obolenja
Upravi
##RJ
##tacij
tipov
dina
materni
priporočljiva
destinacija
##Ma
stanj
četrtfina
junak
črt
področji
mladinskem
Peru
pozanima
različicah
1942
potniki
##rive
##bala
šifri
vrhunska
Kamniku
vložki
dojem
predniki
fino
grafični
alternativo
NO
s20
proga
potjo
obrambi
seznanja
brazgo
vprašanih
bistvene
sUporaba
rumeno
ZZZS
##CH
##sena
Najbolje
smel
zaščitena
Začetek
popi
vest
podce
##dovih
začasnega
dekoracija
priž
##metne
Jasno
1200
borbe
intenzivne
varoval
čoko
nagovoru
##mum
belega
sprejete
gorsko
sloj
zahodnih
združitev
beremo
krompir
Muzej
Svi
ustavo
zaled
leč
1969
naveza
Njihovo
Jakob
##Občina
UR
##pamo
prepoznavnosti
Spodaj
istospo
narisa
##merja
##deva
slap
narodni
priročno
Vrednost
kopanje
obveznih
centralne
kontaktirate
nahrbtnik
prikrajša
očar
##vsko
##bnost
nočni
like
##slava
kritične
##ANJE
migrant
obnovljivih
mit
krasi
Jaka
##drža
Spoštovani
temeljno
kroničnih
čustvene
sveče
Civi
neodvisnost
Odlično
##mislek
svetnikov
ločitev
potrebovala
govoru
tiskalnik
izrednih
Raziskov
Podjetja
shi
dialo
težki
Starejši
Green
škodljivo
prikazali
resen
sinu
dodane
akcijske
vozilih
draž
denarnih
jezikovnih
prizo
Nasta
hoja
razvite
##manu
shranite
soustanovi
William
nezakonito
##8期
molitvi
prideš
obrazložitve
IM
##sjem
##nsu
denarju
psihologije
prodajni
kogniti
obnova
razgra
podvoji
pivovar
sladkorne
Bovec
Oli
Vstop
odhoda
elektronska
funkciji
bogatih
koncesije
Skupine
alergije
vgradnjo
razvijejo
srčne
resnični
femini
nujni
Žiga
globalne
povzetju
Beogradu
Ran
##lilo
##loških
101
načrtno
združiti
kvalifici
praktična
sGe
Židan
upoštevanje
poskušamo
izolacijo
Smart
mrav
##anega
preže
duhovnih
izkoristek
kvalifikacije
Dejansko
postavljene
spretnost
Neo
lobi
čutil
ekspo
upoštevajte
restavraciji
občanom
preboj
##magne
palice
##stanka
odstranju
Ministrstvu
posodobitve
Analytics
včla
razi
Poglejte
vrvi
sAmpak
razmišljali
dlesni
razbra
regre
standardnih
oskrba
padlo
vložitev
globine
košček
takim
prst
sZdravi
prizadene
nesoraz
konja
namerno
obdobjem
bralce
sledite
##tirana
zahtevkov
skrajni
jutranjih
Statuta
ugri
vroča
knjiži
baza
general
filmsko
obstoječega
pokrajini
toleran
sje
napelja
sešte
izobraževalno
plezanje
čakam
Stare
##cifi
skuha
škor
razvijanje
zmanjšamo
cvetov
mojim
spremstvu
Krškem
odseku
zavezanca
##jec
##tol
nameščena
celota
vplivali
smučeh
odločbi
cone
Drav
Edina
##zujejo
##OZ
razbi
ustvarjali
misliš
direktori
prisotno
specifično
galerija
raznovrstnih
identifikacijo
vrhovnega
Izdelki
Jun
##šenega
##ranj
zvezni
govorila
odvijajo
okrogli
odseka
##vobodi
zajem
zapad
jezu
##redba
Naslov
tehnična
nosilcev
prepričali
odprejo
Gorenjske
alternativa
Grčija
Luna
Podatke
skupen
enotni
suhi
učinkih
reak
treninge
navedbe
dovoljenj
Recimo
ožje
tabora
manjšine
mladostniki
Portorožu
##39
mej
primerjamo
priporočeno
##razi
mokri
Pobu
Kopa
participa
nalogi
##nad
##ovelj
raznimi
Toliko
EK
žali
##tlej
zmanjševanja
razvojnega
pripeljejo
pH
zasle
Obla
##plikacija
dopustu
grški
konstruk
Štiri
mat
plake
zakone
Luke
subjekt
najnovejšo
vrednotenja
baterij
neizmerno
Primeren
naja
vsepovsod
fižo
odloži
dvora
Višina
dražji
predvidenih
sekundo
pokvari
##nager
kake
družbenem
Nemški
najmlajših
Vreme
Komp
sNaši
manjšem
napisali
ohišja
pripe
sSam
Model
njiju
ustvarjalni
športov
Uporabite
odprete
Policisti
tiskanja
čudež
razdalja
Novega
nali
razma
obstoječi
strategij
##ritmeti
sester
Nače
sMis
rastjo
zobne
protestan
masaže
produktivnost
prihranite
poštnih
pestici
nadškof
obrambni
doti
elektroteh
nalez
Ozna
dpa
nomini
opazno
računalniškega
bančnih
značilni
globalnega
SM
varnega
iskanjem
posodablja
začetno
urejeni
naporno
posodi
pripravljali
krepitvi
nedotak
Železni
šestega
vlakom
vzemite
podelitvi
organizacijam
neomejeno
DVD
homeopa
sVčeraj
spremljanja
240
vitamini
zahodnem
ščitijo
pristanišče
žreb
vabila
fasci
evropskim
odvisne
govorice
ohranila
##Pa
sestava
##mirja
varčevanje
##DE
##26
medalje
vida
kontine
tržnih
otroštvo
dvojni
Družina
končajo
##čnejše
skupinsko
Beži
pločevi
Trigla
zgornjih
ponovni
talent
dokaze
oddelkov
Svetovni
Rogaška
Poš
Madri
##novala
jabol
svežih
Vladimir
Zavr
sporočiti
fotografiranje
tekoči
matične
protesti
vstopili
srebrno
staranje
hotelih
potrošniških
imenovanje
sDružba
osvežitev
opazovali
izgine
slušalke
anek
veljavnost
energe
krei
kmetijskega
neobi
Svoj
##tniški
##vajalec
slovesno
prizadevajo
doživljajo
objavljamo
nogometnega
principu
Kakorkoli
cestno
Izgu
kupimo
poslušali
dolgčas
Esto
kamer
želene
Loki
s19
imenovanja
slabem
pridelavo
uvajanje
izumi
COB
大发
##cess
ocen
##tirano
pretekli
preizkusite
Podče
športnika
uvodni
individualnih
Kru
Slom
ubla
ciljne
podjetništvo
predvajanje
odigral
nepozabno
šampo
moleku
Dovo
poznih
##čišča
oblačno
njegovemu
prodanih
praznike
pametna
gasilsko
nagovoril
preplet
možem
družinskem
vojn
dosežete
lesena
Velenju
prejemajo
Policijske
kriterije
soglasno
hitrem
prekine
odpornosti
YouTube
Žup
zanaša
Možnosti
dvom
spodbujanja
jetra
listo
namestnik
varčeval
analiz
opredeljena
odtuji
kategori
sNajpo
objektivno
absorp
Renault
Radenci
##jeta
linij
ustvarjamo
Turni
vrhunskega
zaznamov
papirna
previdnost
naroča
zbirali
opravljeni
nosečnost
mikroorgani
gimnazijo
trdim
šablo
elegantno
##UL
kaka
lak
Turi
Hoče
izkoriščajo
inovativno
kozmetičnih
kemikalij
neizogi
spis
##rde
##74
zastave
prodal
reza
neure
menjave
prikazana
Portorož
Hal
krip
angel
obstajala
organizirana
Mednarodne
garancije
Drnov
navijači
kakršnekoli
##inka
ruda
Južno
spoštovanju
dizaj
spove
Najlep
bistvenih
IR
uniči
nenasi
podjetnika
raziskovalec
sprašujejo
ograjo
fasade
und
##relo
oklep
Odvi
sklepi
predsedniških
arteri
plačilne
slepo
TA
odstotna
jeziki
seznaniti
pustijo
koncentracija
nedeljah
kosa
Izjemno
vojaška
struktur
utegne
povezovanju
tovora
prestolnica
##zy
vključil
domovine
zapeljal
prenesli
črnih
obravnaval
izpadanja
profesionalne
##ware
cesarstva
zale
sSla
prejelo
psihoterapev
##uge
dajemo
maslo
##hol
razmeram
oddaljena
zabavna
pogovorih
zlorab
početi
stu
najza
kur
##sniti
Pridobi
podjetniški
##RAN
predpisanih
njuno
kozarec
Janu
Zgra
##dži
izpove
prhlja
##bnikov
krta
Precej
oddate
neposrednih
mimoido
študentskega
resnična
investicijo
zanesljivost
samostojnosti
testiranja
bron
vetr
razbur
##pasov
sVar
veljavnih
odvisnost
zabavni
sVerjetno
verske
scene
Mnogo
Ustva
Vati
petja
literarne
produkta
posojilo
Švedskem
SAZU
žol
##ješ
mede
##done
##hode
pisne
narodnih
postavijo
življenjskem
vmesnika
##dorf
Cle
##rene
##zele
omejeni
udobna
izpolnil
odškodnino
najljubše
##ml
##ženec
maturi
prebivalca
posredujemo
razširjen
počutil
pritrdi
##то
##žicah
maša
##vljajo
zdraviti
prodajalcev
strateško
Ham
dobrodošla
Isto
odgovornostjo
občutljiv
mentorjev
prinesejo
zaporednih
##čanom
##ževati
mul
občutili
krepijo
zaprti
vstaja
šov
preide
Jana
zavodih
proizvode
Ferra
predali
##ziona
vzponu
s15
medicino
statistično
Gorenja
Priporoč
analog
utopi
vhodu
sir
Taka
bata
novico
Ženska
##koval
##berali
rezanje
perila
##valva
omogočeno
poslovnimi
podatkovnih
blaži
pisnega
adven
privlačno
Turčiji
even
siz
modelih
avtomobilske
1919
disciplini
##dovati
sestavljeno
izklop
##pimo
delaš
sVlada
sSvet
prvenec
pospeševanje
primarno
Zor
##žnjo
##uješ
bilan
Bodite
izkušnji
kupijo
##ans
domina
provo
Rešitev
##loginja
Datum
predlagajo
kopalni
zaprli
##dljivo
zadel
Majh
horizo
Predsedni
##foni
potenciala
ekološki
vrnemo
tujci
razložil
hranjenje
Logatec
##steh
liniji
svetovali
zahtevnejše
Spomni
vrstnem
vodnika
Imeli
prilagoditve
neenako
Donald
Mre
zmen
trpljenja
policijske
predstavljate
predstavnica
konkurenčnost
izobrazbi
skeni
opisov
##žnostjo
Pomoč
goni
Pedago
opravljamo
prilagojeno
perso
pokopališče
SEO
seminarja
Eco
nočejo
slikah
marveč
trajne
pričelo
ponudnike
statuta
financiranju
kongresu
oboga
##ttle
menoj
sVprašanje
##kso
izmiš
##čnikom
prevozov
##grafske
obroke
ustanovah
##DR
plavanje
terena
041
upošteval
LP
Zlasti
##ovar
##dnikom
Konta
oceniti
elektronskem
ohranil
starim
ujeli
kraljestva
##vskega
##meh
##šenju
##znimi
vključeno
Nik
arhitektura
vpogleda
vzgojitelji
Avstralija
##sed
##cela
##bice
leve
plašč
kopalnice
Stroški
mariborski
sporu
strokovnjakom
iskala
rezervoar
Un
masov
igranju
prijazne
geni
sLu
plačilom
rubriki
##grni
izpopolni
kliče
izdanih
kanaliza
reč
spolnega
nosili
skladatelj
smučišču
demokracijo
Olimpija
George
jas
sloves
tekla
geno
nekdanja
seznani
##elektra
Fra
##vie
Debe
nekon
naročiti
kliničnih
Open
ženi
šestimi
komunikaciji
Microsof
gospe
loti
pisalo
razkrila
rimskega
vzoru
nogami
##riše
pravoča
uveljavitev
sekundah
Enostavno
visokošolskih
istr
Špi
##HO
hišnih
projektnih
Miche
ažu
##tha
skladnost
sEno
Online
obdržati
prepi
predzna
vzkli
ministrov
facebo
zadetkov
okužbo
vesolju
mlajšim
oljem
tekstov
sprejetje
##ršič
s13
odvzame
statistične
sredozem
dostopu
predavatelj
Kun
cenzu
grobo
kvaliteten
nadomešča
shranjeni
kmetijstvu
hčerka
##čakov
odstotkih
zračnega
predlagali
1967
Italijani
##stoje
Ravna
svetovalni
Miran
filtra
Voda
Gorice
menjava
mod
##berne
vizije
spretno
plaz
barvanje
gospodarskem
preizkušnja
Trumpa
upre
poučevanje
sporočilom
porast
Luksem
Vze
učno
bise
takse
parcele
dosedanje
Lei
prijetnem
datumu
##letela
omenili
navedbo
Posebnost
Izrae
Spom
uka
##će
depresijo
stekel
vodilne
Anti
obrazcev
zelenjava
kuhanje
oškodovan
vili
členov
strežnika
presežek
Razlika
sBa
nezah
##dbudi
stolpa
UM
klice
okusov
generaciji
grozd
iskalnik
Universi
kemičnih
Palesti
predaja
Poh
varčevanja
izražajo
pozicijo
onkraj
Parla
žogi
lastnostih
brezžično
nogavice
##vre
spolnosti
zdrža
delovalo
tekst
izvajalcu
uvrščajo
razkrije
Številne
subjektov
smernic
premagala
##ая
##tiranje
##belj
sprejelo
ogledal
franši
obtožen
Kanadi
razmislek
Ljubljanske
Sava
dražje
nepremičnino
skav
neodvisnosti
tipično
##vska
izpisa
posesti
decembru
Osnovno
Vmes
bob
pravilnost
predlagamo
##činski
##čarka
dodajajo
prodajno
dlake
Pun
##ise
##ves
##mit
prošnje
Češkem
izobraževanjem
kontaktni
pokopališča
Ponavadi
##EV
zani
kab
Primerna
ustih
dodana
zdravilom
navdušenje
nevladne
obhaja
razva
##ford
profesionalnih
4000
izdelovali
dobaviteljev
gostoljub
nakita
##yor
sČlani
nezaup
ogromen
Minister
uvodnem
##vite
##čudovi
lim
Vero
Rada
plesne
smrtno
pristojnost
privablja
##idi
##URS
zazi
selitev
izgna
razprav
##trol
strasti
blata
procesih
zvočne
preostali
diete
##vk
veku
##zivno
delček
Mohor
bralca
pisarna
rezervirate
kontaktirajte
##76
##cira
konzer
vredni
ukrepanje
pristopov
Poljska
lopa
zgodnjega
znanstvenikov
umik
dokazila
Psih
##lovec
glasovi
suhih
##rod
dokto
##zia
##ševanjem
##menjuje
služila
vplivu
nastajanja
certifici
zasede
zima
uvrstitve
obnovili
nepogrešljiv
Trebnje
##tei
kope
zveni
minulih
sSlovenska
##nart
dole
ležijo
čelju
sNovo
izkupi
predstavimo
najdem
pritožb
XX
sJo
troj
populacijo
obvlada
Največkrat
080
prisluhnili
škan
sejni
odja
##kovnik
Navede
oblikovane
proračunskih
hitrejšo
Španije
Osebno
zavrača
##TD
##vitev
delate
Kakšen
deležna
poskusu
bregu
sUporabnik
sCilj
vegeta
LCD
##jščina
veže
finali
Sveto
gostili
pripadnikov
šal
Karavan
zahvala
##glič
dogovorjeno
operater
naročnike
križišču
##šjem
prilogi
sKlju
Ljubljanskem
omogočijo
trenutki
komunikacijske
artikla
Britanije
pritličju
Zu
##ssen
##yu
peru
nadstre
dvor
menite
brezplačnega
konkurenčnih
Obiskovalci
kapljic
Zraven
zbe
##lesa
odgovarjajo
Zame
stranske
epidemi
ozračje
gl
morjem
##kšno
Ljubljanskega
akcijskih
##tkah
sAr
tekočino
luknjo
krščanske
Pohorju
izgle
samosta
skupnimi
učinkom
zrakom
celovit
smučišče
klinično
razložiti
Vrhovno
vs
##bol
niza
Imel
visokošolskega
sVsaka
that
your
zapisu
##ščico
znanstvena
nacionalna
habita
Kur
##ander
Goz
visokokakovo
plačajo
s14
Krim
Povsem
arheo
gigabaj
konstantno
##gali
borijo
##sper
pomagale
brali
toplotna
nastope
segmentu
nedvoum
Ol
##leki
Pon
radijske
planinski
pozitivnega
kredit
tablice
toplogrednih
prezen
gosta
prazen
pravu
Redno
sprejemati
plesnih
Bit
draga
televizija
priključitev
referendumu
Urban
Zmanj
sraj
prezi
letošnja
dejanskih
marcu
all
Alba
sHvala
starejšimi
registriranih
argument
špi
##vskih
##gine
suh
streha
osrednjo
kontakt
motnjami
##tiso
pasem
razdelku
organizatorjev
sproščen
oblikovanjem
očetom
najemnine
olajšave
vlaknin
vpišete
pozoren
sestro
sote
##žitve
delujemo
Družbe
profilov
bogoslu
##ranek
##tent
Projek
Jožefa
stopnicah
wiki
prero
menjalnik
starejšega
pogajanjih
konfliktov
ožilja
mori
bala
rešila
algo
pisateljev
občutku
1964
upravičencev
sOtroci
Jar
Jezer
zasedla
funkcionalno
previdni
medsebojnega
Severni
posredovanju
Elec
lego
prednikov
posko
Master
mesečnih
teraso
mišljenja
navdihu
Bul
##ama
okrevanje
modrost
soav
##lovega
##gue
Indija
sŠtuden
receptov
zavrnitev
dojk
##EZ
izšlo
kavi
tuja
sSple
knjižnega
sodelujoči
razmišljanju
novinarja
akademiji
zaklad
testosterona
Kjer
##metnost
Menim
stavke
pravosla
žarkov
naročanje
Apartma
sc
zloži
lahkotno
romu
pravično
Papež
kvalitetna
počitnicami
tožilstva
Območje
DNK
##trt
dostojno
nekom
stanjem
pripomb
pesnika
enakovredno
veteranov
fajn
publiko
združeni
brada
poravnave
rumene
Michael
Opel
aso
odmi
katedra
Priso
horo
zahtevane
dogovori
avtomobilih
državljanom
odpovedati
voščilnic
Britanija
intervjuju
sun
udeležiti
lokalnim
materialnih
sTrenutno
##rl
##žnejši
##šani
jak
Četudi
človekom
skrbnik
sistemsko
petdesetih
povračila
panoge
sekreta
prisr
Azije
##dt
družinah
vključite
bitij
klien
odkritja
Home
Merku
nalepke
Klik
najmanjše
1965
SIJ
manjkalo
preostale
usposobljeni
prstov
jubi
Nika
##torij
dodajanje
navedli
plešavosti
##ribor
zara
tego
rojeni
igrami
preselili
zbiranju
imenovanju
penisa
Vloga
travi
zapravi
signali
sKi
prebivalcem
nosečnice
preteku
izkaznice
KO
zgovo
##nela
proso
Nejc
označili
nezado
osrednjih
Ponudba
##高手
##nicami
##sing
storila
ugotovilo
kritiko
##grafskih
razkrili
aparati
uveljavljanju
pošljemo
nastajanju
kompromi
Najnove
modelom
pevci
prikazano
privlačna
Urška
komisar
##daje
odkle
##šimo
večpla
miške
Noki
jezikovno
kazenskih
kozmetike
Anja
Schu
jedo
povečan
Magi
širjenja
današnjo
predmetih
simpati
policistov
Horvat
##31
##šlja
preskr
čemu
temne
držal
zapor
Mir
zasled
odstotne
oblikovalci
sKonec
ogledala
razširiti
izraziti
čistilnih
nivojih
izmenjava
znebiti
restavracij
verou
deležniki
neželeni
##ECD
mraz
toku
##sino
Kostanje
vzde
gramov
krožni
zlatih
vgrajeno
strežniku
odmerka
##ctor
izgradnji
hišne
sklenitve
običajen
kmetija
slednjega
raznolike
onemogoča
januarju
spravlja
sal
##neš
Tabor
##sky
izvajalcem
večjemu
zastopnika
kožnih
razpisov
imetnik
parfu
Tere
obleki
relaciji
DJ
telesom
napovedali
toplih
Lovren
Pavla
fos
Komisijo
motorje
romanu
okrepiti
pripeljalo
kopeli
znala
poskusil
bolnikom
strateških
otokov
avtobusa
odzivnost
migranti
Edini
##vino
##viti
##stite
borili
postajah
brezpogo
kontekst
Islandi
##njam
##klaplja
učimo
privlačne
posojil
Sco
##sre
koncesiona
odnosom
pozablja
infrastruktura
opisati
odobritev
urbanih
stopnjah
Simona
WC
##šk
premoč
##kuba
stalnih
##pust
##valite
Radia
doseglo
sluha
mednarodnimi
179
uredil
Kraji
nedovo
Zahte
Huawei
Ustanovi
##risto
prela
uporabljene
konci
Kombi
zakoniti
Info
steze
dobrot
Saša
nemščina
zanesljive
Dodatno
naleteli
spisa
##ČP
##Fi
pazi
##sus
##kšni
populi
1962
##ENA
spomenika
bistvena
Rdeči
rjave
akon
evr
##valnim
nosu
zunanjem
bralec
priznane
zamej
olajšajo
kontaktnih
obeležili
Litiji
juliju
Grand
Ele
neopa
duhovnika
vzorcu
krav
##čevih
Poga
mam
odkrivanju
gradili
partnerstvo
zaposlil
zaupali
dostikrat
SL
chi
gline
##ranem
preis
Toki
sDol
wa
konden
rojena
vlagatelj
skupnostih
izročilo
prenesete
Aktu
upr
##ništvu
miren
maturo
pristojna
nevaren
nadaljujete
Sodelovanje
progresi
ustvarimo
združila
##strstvo
nogometno
pišete
zaznamovala
Continu
Srečanje
izravna
ober
rož
omogočimo
plačate
##grafsko
vezana
AA
občni
##stojen
nostal
##slovja
pakete
olaj
koristijo
##dujemo
zakonika
##dovanjem
sNaš
Milana
vsakdanjih
blokov
fakulteto
nohti
diskre
EGS
FB
popeljal
##zijski
not
visokimi
175
nobeni
Uradno
Univerzite
časopisu
zadrži
prekrva
##loč
obdar
kakega
Kopi
videa
zahtevni
spomnite
edinstvene
Elektri
Ek
MMC
##45
##low
##delava
Temelj
nepozna
cerkva
kompleksa
naključju
vzhodnem
##jevega
začnem
##coj
Mara
ustvarjalnih
ceneje
izpolnitve
ustavne
regionalnih
tožilec
probio
##čneje
##pravno
rodovi
začetkov
tistemu
marsikoga
##iro
posre
potrebščin
posege
Tedaj
zabavali
čimbolj
notranjim
Multi
##reli
##vajalci
pokliče
s16
investicija
arhitekta
sladkorno
preostanek
panoram
početje
bitki
Toplo
##hodna
zgoditi
pridobitvi
izdelanih
Dor
##šnimi
desnem
Save
poklicali
zemeljski
Standar
izpeljati
obrobju
razstruplja
Gali
najemo
sNje
prostorskem
tvojem
ogromne
promociji
napisana
pokrajina
Matija
kdorkoli
plezanju
stavbah
lanski
##jani
pretva
distan
hit
##stavljenega
srečna
Vaši
razširjeno
izvedeno
sCelo
optimizacija
1887
želodcu
enostra
avti
parkov
Niso
središč
izvrševanje
globoke
##zdr
vinske
pravilen
##ročje
##govanja
##hel
stresom
povečana
računalnikih
industrijski
strateškega
pristojnemu
najstarejša
pristanišča
Poznamo
nepričakovano
Oro
по
##ljak
izdelala
zmanjšano
Kupec
naročniku
skepti
nastavlja
odri
stalnim
##mentom
uničenje
##čevalci
slovenščina
preživni
bataljo
Njeno
soigra
delodajalcem
imenovala
pasme
Mednarodna
Vrhovnega
letov
vprašala
prepoznamo
230
1963
zalivu
##ii
makedo
jagode
gob
sončnega
jazz
medicinski
reakcijo
1952
ščitnice
mojstrovi
natisne
Plu
Bogom
##ljencev
prilagodite
predmetu
prijaviti
prijateljstvo
pacient
sekretarja
čelade
nerjavečega
##RM
radar
povežemo
stroju
narodnost
praznikov
Vransko
večni
##snili
Mestno
sOpomba
Para
Najbrž
vzdrževalna
pripomogli
opremljeno
luknja
hladilnik
nečisto
nabere
laže
držali
zahtevate
pozicije
nasprotje
zelenega
Brezpla
Christi
##GL
dano
vladar
gradiv
povprečnega
prekmur
popolnosti
sDruštvo
FA
##Nov
##ljeval
penis
prijaznih
nosite
versko
reakcija
OECD
##jijo
nadgradnja
podjetniško
sVedno
Združene
namestili
varovan
zapise
pripovedoval
osvobodi
106
Preo
duhovnega
zaščiteni
španski
računovodskih
kol
raku
pali
##siji
izboljšujejo
turiste
zapisana
zaupajo
Glej
##cki
polnim
inde
predstavljam
težji
ognje
počasneje
upajo
Barva
odposla
izloči
dostopajo
šahov
gibljejo
SC
hran
##GE
šolska
razvita
Vodja
##čarski
duhovniki
ljubim
ljubljansko
kampanja
Spletno
tarif
terma
kriva
Preva
zaščitnih
prilagodimo
##porta
Odlična
udarec
Nasprotno
Sna
dodatkom
pripravljenih
telefonom
preizkusila
trgovanja
prejemanje
pravnomočno
certifikata
sEvropska
Irena
ube
vanje
##xe
tokratni
muzejev
blok
motoristi
##terna
nepomemb
rizi
okužba
Šempe
premikanje
obrest
poenostavi
serijsko
ročni
dvoboj
prevajalec
##mbro
uveljavitvijo
ocenjevanju
odstranjevanja
sporočajo
Beseda
Jelšah
algorit
komedi
popestritev
KP
OD
##UK
##心水
postan
Nakup
ročnih
Neda
razvit
zaslužek
najljubših
Kakšne
pridelkov
##vjo
sveža
potovanjih
virus
glivi
##ndu
izni
##sis
prsih
hidrav
katerekoli
vredne
nosilca
meniju
poročala
Njegovi
vpisani
zviša
Težave
namo
kočo
pesek
limu
nagradi
publikacije
zamisel
sObveščamo
NOV
SH
##valnimi
dostava
##šec
mila
dvesto
Jeze
##rnal
kdajkoli
izvedene
bazena
tematike
brezskrbno
odpravlje
grožnje
##talnem
frekvence
Sun
nanos
nasel
popravek
Domu
povečane
Imate
časopisov
distribucijo
Kel
##48
##zade
odločitvah
videzu
davčnem
Telekoma
egip
##čbo
kubi
102
finančnimi
dojenčke
##nesti
lažja
merjenja
##cionalno
##ščinami
Kino
privoščijo
zaskrblju
##siness
mnoga
podana
znameniti
modernih
Dobrodošli
##panja
##EB
##lerja
##bat
Prostovolj
Johan
zaslužil
predvidene
zavrnilo
vzdržljivosti
Izdelava
agoNov
AK
##korej
običaj
zamenjala
patriar
Zmaga
medved
Božič
uporabniških
Anto
arhivi
Chrome
tekmujejo
vpelja
##lež
koš
##čenimi
Slovenia
beda
potrebnega
lastniku
ustavnosti
Knjižnica
palesti
režiji
vztrajnost
piknik
ceniku
##ščenim
izražanje
Beri
sTokrat
okroglo
##rma
indu
načelih
prepovedana
Svetovne
demokratične
šar
nemščini
dopolnili
ogrožajo
nameniti
izpustov
##mandma
##grite
##pola
Karla
sovpa
Znanje
Turčija
UPB
regeneracijo
zanemar
MD
##gru
##nior
Pokaži
pisem
Približno
sDolo
spoznavajo
nacionalnem
konkurenčno
Števil
nosečni
tekačev
komuniciranje
vznožju
IKT
ins
razna
vključevanju
srečuje
opravljala
risa
obtok
vrečko
vlakna
kapitalizma
##mbel
naprodaj
posled
##ovano
Prijavi
potezo
zahtevah
##IST
povračilo
COBISS
EV
##žaj
Vesna
hol
prebivanje
izpolnjevanja
mehanizmov
samozavesti
vpisan
##mber
##bke
popr
vizija
Izjava
odličnimi
Karl
rojstno
##RAV
1966
statistični
##UTB
ovojni
silovi
vodniki
namero
zahvalo
centrom
izpite
sTek
##now
križan
številkah
zahtevnosti
grmov
internetnih
energetski
navijačev
belgi
trgi
##bljenost
poslanske
nasilju
poškodovane
##pini
gastro
odraz
francoskih
sSedaj
prazgodovi
Zdravje
uskladiti
Svobo
priču
##cht
All
pripomogla
ordina
blagodejno
odtis
razved
sDra
dolgoletne
gibanjem
načrtovano
tečajni
uveljavljanja
izmenjavi
Gašper
Spro
odstotki
sprejetju
rezultata
hemo
načrtujemo
avstrijskega
hvaležni
kongresa
vsestranski
Kolesar
##ele
dvanajstih
primerjati
obiskovalca
sVsekakor
estetsko
sNaslednji
Učinkovi
Spremlja
dolgov
opravilih
prejeti
nasprotnik
parado
Parki
likovni
pogreša
obutve
predhodnih
naokrog
gotovino
pišča
varnem
dosegle
očesa
svetlobnih
gostila
standardih
pristojne
prihajajočih
sTeh
Dobre
protei
konstrukcijo
Sezna
pogodbah
telefonskih
matični
##sco
dežu
##njenem
tumo
stimuli
zaseda
premag
strateški
opazite
katastr
ponosen
izgledajo
jajc
Jezik
Obvestilo
mlin
elektromagne
zaključena
upravljajo
izboljšano
igralke
1953
padavi
Stanov
vnesete
plovila
ph
skupinskih
dodajo
približuje
izpolnili
vlaganja
nevarni
Excel
Bus
zajame
128
krono
jezikom
izgubiti
procesom
##porazu
sKomisi
gozdni
uvodu
uvedbe
utrujeni
Primorske
književnost
Erjavec
##CC
##mentih
pestra
Mene
##mpilj
prestolnico
Posve
NVO
##glji
nošenje
obrat
Pravni
operaterja
Priporočam
seminarjev
sMinistrstvo
prince
##vniki
nosila
telefonije
filmskega
koristen
mojstra
priporočilo
Švedska
ravnovesja
periodi
dogna
sPar
enakimi
finala
zgodovinska
železo
zračni
drastično
letnikov
zaznati
sRaziska
PL
Pote
##ročanje
Jack
zamenjava
Škoc
smučarsko
poiskali
razglasitvi
Spli
nareč
testu
##valcem
Kari
akcijah
preseči
naposled
črevesju
zainteresirani
Storitev
bosan
sPodatki
plačani
kvalitetnega
počutite
povezujemo
konkretnem
žalosti
duševnega
spektra
UNI
##žre
Pomemben
##ranci
samostana
razvilo
Avgu
neuteme
pogledali
rastlino
preiskavi
diploman
##žnji
##čkega
pevec
hočem
spletnimi
Žirov
profilu
urbanisti
pobočju
tekmovali
##jas
laj
svetujem
integrite
rojstvo
ogroženosti
prijavili
Splošne
iskri
2021
modernega
Pomembna
##šji
nadu
podzave
svežo
##play
sPodobno
ogledov
klepet
obdelujemo
pretoka
homoseksu
AI
nani
srede
prehram
Ludvi
prepričala
Amazon
UNES
TS
pravičnosti
uspehi
Lenar
takšnimi
stopnice
vsote
pojasniti
otvoritve
platišča
joge
ločenih
avtorice
slavo
obrazov
vojvo
napovedala
izrazili
komercialne
londo
##vano
sprija
spoznanj
zasedli
ponazarja
namestiti
zavarovalnica
punce
##pl
degusta
vrtov
poteze
ločeni
Vemo
udeležujejo
uradu
Avstro
deležu
postojan
rekordno
Čisto
apartmaji
pribo
##čevalo
##zela
ločena
ustvarjal
1958
zlorabo
izročil
štipendijo
##diplom
izro
Odbora
pomanjkanju
izkoristijo
vodnikov
upravičenec
Sebasti
ugla
##matolo
##silo
žirije
odkriva
primerjava
spopada
izida
sSkupina
##notraj
možje
##nomsko
težavam
verjel
štirideset
Bara
grožnjo
angleške
centralno
zamenjave
pošiljajo
opisano
avtocesta
popoldanskem
Dovolj
Plan
akterji
poskušala
varnostna
komunikacij
Partner
obnoviti
emisije
sodbi
##malo
##gerja
stenah
zemljiščih
skušamo
Ultra
##ČI
pravnem
Bosni
občuduje
##ference
podjetnike
širine
odporna
skladiščenje
zajeti
Ane
sar
angl
metodami
Povprečna
RK
metri
kuver
Take
združil
potrditi
poškodujejo
krajših
koordini
Halo
NBA
##ит
rep
##trtek
vsakdana
odstotke
funkcijami
Mark
poudarili
studiu
osamosvojitvi
litrski
tečejo
monarhi
##zijskega
Katja
Bodi
okvirja
nasprotniki
časovne
pogledal
tipko
1954
obrazložitev
sGlavni
uvedel
Šale
ser
nikar
Pozor
omogočen
našlo
zasedanja
smučanju
studio
ignori
agi
razčle
Ponovno
ustra
izbranimi
Novice
odpadno
formulo
Navdu
Outlo
Whi
##reno
obalo
siro
začetne
veljavnimi
užitka
spraševali
čevelj
postanek
ognja
letnice
navadnih
doživeti
Pragi
edinstvena
sPiško
stereoti
##ef
##prise
Pregled
sodobnimi
fotografijami
dobav
vsakodnevne
brezhibno
750
sadov
občudovali
zmede
treningi
Zdravilo
##same
stati
najboljšem
kritiki
formata
usklajeno
Boruta
komiteja
metabolizem
izum
rejni
avtorjem
napadal
gledališko
izvedejo
izvedemo
konkurenčne
Pravijo
##atch
pogumno
Slednja
Bluetooth
nameščeni
elektronike
prikazov
notranjem
modul
poglobljeno
primarni
snemanja
petnajstih
urnik
Črne
kopira
diši
##sul
šok
županov
pozorno
Vzrok
vročini
zvestobe
dimnika
Nataša
pregla
drse
novejših
sDan
ugotavljanju
študentski
Oko
##65
kadra
dividen
trte
gozdno
spremenjena
sledeče
izognemo
TI
nakar
##mobil
Pripravi
obvezen
okolij
Lipi
rdečega
specifika
##delovanje
##tija
kader
megle
##doba
stalna
očita
##razpo
znižuje
performan
opisujejo
zaprte
skladiš
Jor
##ure
laži
človeškem
Letali
bližino
volivci
##zovanje
uvrščamo
spoštujejo
varujejo
obzorja
Koreji
obertni
Istri
cur
##ncih
##one
odbija
projektan
pomembnejši
spremenimo
začneš
poimen
rastlinskega
oa
##jega
doli
danem
razjasni
voga
##prite
sluzni
oddajajo
zgradbo
prepleta
radosti
##ranost
##čenec
Pozneje
določilo
veljavna
udeležuje
označujejo
večerji
Nizozemska
##37
zat
sprej
letalom
histo
Toyo
Češko
opomni
programskega
Vale
čistilno
priključek
žoge
##sso
##FO
##ка
liki
honora
izpostavljen
Cesta
duševnem
kopije
okvaro
slogov
##vnejših
mafi
stalnica
kupnine
kritika
kritičnih
sprejemljivo
močneje
preiskava
hribe
##ida
##tore
##čenj
rent
plaža
nameščene
skladišču
zakonito
obrtni
odzval
katoliške
prevzamejo
lahkih
Bioteh
Izobraževanje
Gen
##zacij
bodoči
brezdom
stisko
Razpis
razglasili
predpisano
tržnici
aspe
##zdi
##tli
zastavlja
važno
##memba
##hodnem
holo
določimo
avstrijsko
dobavitelj
EF
popis
sklenjene
običajna
tekočih
kakršni
množici
prihajali
pregledno
potnike
##SKI
sinonim
lakote
marsikje
karton
pomenil
deležev
Ribi
kreditnih
uveljavljajo
##lnoma
prejšnjo
kreditne
izobraževalnem
obljubljajo
prihranke
sladoled
uši
ŠD
##lori
odrek
sMladi
regija
merili
položajih
dekoracijo
inteligence
dosled
protagoni
spore
lice
kralji
zapustila
počel
TOP
uvi
zdel
zaplet
##dnic
južne
zaporu
označevanje
poroka
umrli
četrtka
evidenc
Ivančna
prtljago
efekt
Ei
zlož
dodajte
lege
##sij
izboljšav
študentsko
čutim
Sie
pomočnika
razrede
neznanega
Poljske
selektor
Petrol
LE
##zelj
potekom
severne
sklepamo
Bruselj
Ak
##dske
##stičnim
morski
uživala
odgovornega
odmero
odborov
gmail
ustavlja
vljudno
##oro
##jenjem
padal
##godno
Javno
polnje
bližine
regijah
zvon
zgradil
##disciplina
nizek
njenimi
normalen
stopiti
integracijo
prečudovi
povečini
Kateri
##nergi
medijskega
študentka
prvoliga
dohodki
sankcije
##го
pasov
##ljevanju
izvajalce
##cionalni
dvoji
pobud
Porsche
pristopu
eva
##č
zdravjem
omogočata
odgovorila
novostih
poučuje
partnerskih
aprilu
hrvaškem
razvijali
poklical
Enkrat
razdeljen
uho
diferenci
županu
daljno
gozdne
narekuje
zvezdo
Obiščite
pričnejo
Dolenjske
Skladno
Primerja
Mihe
ly
##27
obup
reve
rodov
zvesti
aktom
Alpah
Ameriko
kombinacij
kontracep
kasnejše
sMislim
Bala
ela
##bona
sSmo
škodi
Starše
računalništva
manjšin
učiteljišča
opazujemo
izgovor
##kuli
uničil
poskusiti
zmoti
krščanski
Direktiva
sheme
predolgo
azil
sz
mokre
proslavi
sKra
izboljšal
župnija
dijak
statistiko
vročino
vročina
invalidsko
kolekcijo
Ljudske
prebo
žita
otrokovo
Moram
Izvr
večerih
živčev
prihranek
dojenček
Darko
zr
želj
Natura
Dekle
idejami
dvignila
pijača
Turki
restavracijo
dečki
Slovencem
ročaj
Meta
uporabnikih
parc
ZDR
znanstvenega
grške
simbolizira
istim
dvignil
vpa
retori
Rea
zasedbi
označene
večerni
bližnjem
Namenjen
Oc
##gradi
resna
vozniku
duhovnikov
prikazal
ozaveščanje
Osebni
nevihte
injek
šen
Kom
zdravniški
spoznavanju
posvetiti
bančne
spreminjanja
##bardi
osrednjega
1917
BS
trditi
krasijo
sAl
odstranijo
nadomestiti
Pravo
##vajse
povod
Posledica
evangeli
horizonta
špa
##jenimi
##stjan
Jurija
položaje
francoskem
1957
opredeljene
jedli
Škofje
festivalov
glavobol
POP
##mbra
##rea
##pert
##zetek
srečne
izboljšamo
popusta
1955
maščobo
osvetlitve
realizacijo
TH
##čilom
kampa
##pija
##turisti
vohu
zatočišče
kolegov
poslušanje
pristope
Katarina
obertnijs
Bov
##njevanje
2030
sprožila
četrtine
zmagovalci
Posred
Aleksandra
##manov
dolžnika
protiu
izkušenih
nakupovanje
kandidaturo
travna
##dstav
nelagod
britanskega
zavihku
Kranja
ukrivlje
##tle
##šov
izva
levem
pravičnost
mesecem
pojavov
114
pristal
geografsko
spremenljiv
milosti
sPoli
Javo
smelo
sMestna
sMaribor
Istre
vklop
terasi
spomnili
izreče
slavnostni
Najpogosteje
##ject
veji
povemo
vzgla
Maksi
dejstvom
pobuda
delničarjev
Mladinski
ploščadi
sanacije
zadruge
Sur
##nit
moke
avtoma
občinami
glasbenem
spominsko
parkiranje
razkriti
stanovanjski
tenisa
neresni
##TR
##pino
časnik
Naza
nameček
Petri
profesorjev
##loška
Read
hoji
čutila
odraslo
telefonih
počutju
padca
sFa
Spremembe
prehranske
Continue
JLA
konzor
informativne
krožno
ogledamo
novembru
izbiramo
izpitov
televizijske
Slatina
Prijave
Zupančič
privzeto
##stijo
vajah
varnih
svetovalca
zgornjega
Plečnik
preobčut
CS
##rično
solo
##šica
Katere
naročenih
bralcem
structure
predpisuje
risan
portfe
NP
pameti
plažo
pišite
Kapi
Logi
mobilna
grof
načeli
počitnicah
italijanskem
trepalnice
##gma
Jean
orodji
kmetijska
##furt
zaupal
pogovarjati
deležnikov
Glasbene
can
božji
najv
šteti
vključu
točnost
šolskim
odražajo
izboljšalo
##5期
##ия
seli
Mozi
zaspa
meditera
sprejemnik
##vovr
študentske
Takšni
Občutek
Lj
##sledi
##py
izleta
##pilo
stoli
Paul
jezer
gradbena
jamči
Rdeča
Tü
##eko
lika
Mit
praznovali
spravil
destinacij
signala
sestavljeni
ladij
predlogo
vrto
šolni
##govanju
Doslej
##eld
določba
slednja
telovadnici
portre
premišljeno
spontano
usposobljenosti
nemalokrat
##ritmetika
на
##njaku
mav
tuš
Zvečer
drobnih
Fakulteta
podružnice
likvida
##šnim
inven
odvajanje
dobr
obiski
kateregakoli
nasprotnika
obvladuje
1939
Hribar
Pho
Stor
##žbami
##gana
medve
povzdig
pridem
oddaljeno
neposredna
Toplice
najustreznejše
stadionu
##rniški
avtorje
nagrajeni
črko
grobe
mešanice
kreditov
sindikat
galerijo
Francozi
sAvto
Raziskava
##meli
predstoj
miško
sporno
žirija
##torka
zgodijo
113
razmišljam
prizadevanj
prikazan
odpovedal
babice
začimb
##hra
##via
mera
##hala
ture
107
Povz
drobne
raznovrstne
razpoloženja
naletel
kožne
nežen
Koc
Las
številkami
ogr
pustiti
dvigniti
komunalno
leseno
code
invalide
izpade
Štajerske
maturan
otip
##pravni
storitvijo
novemu
traktor
opore
odkrivanja
športnimi
uresničiti
izpostavljene
obljubil
konfli
palače
bencinski
zlaga
##čevem
tokov
skrbeli
oglasa
zvočnih
sPredlog
prevajanja
vizuali
tanke
##iner
pripravah
mela
potovanjem
Živali
pesmijo
skrajne
usklajevanja
sproščenem
lovo
##glu
dola
##snite
Najboljša
grafičnih
krajevno
rimski
optimalne
iznajd
konvenciona
krem
Cir
institucija
mehkih
opisane
letenja
jedrske
Prepričan
bogi
boriti
matri
odličnim
Vožnja
zasebna
zgradb
izpolnjen
Policija
zavarovana
odvzema
poiščemo
Ideja
##bena
podatka
pleme
združenih
opravljanjem
upravičenih
tekočina
tovrstnega
presenetil
trenerji
Kakšno
zaposluje
nezahtev
Sme
kozo
vetru
##gramu
Katoli
sSkla
voditelja
kmetijo
svobodi
žarnice
panogi
Sar
##gorija
leva
##novanje
vzmetni
Matev
oblikujemo
prevoze
aneste
Emi
počivali
mojstrov
trgovskih
hrvaška
##pljenju
Organizator
nogometaši
##mije
trdne
pogonom
prodajalci
koncerti
prešte
##vimi
uvrščena
ekonomskega
ponovne
pripadnosti
sošol
otroškem
oddaljeni
univerzah
ulic
izjav
pokrivajo
Bližnjem
##raciji
metrih
zgodbah
Dobr
greste
širiti
uživanju
##ARS
srebro
kongres
Poslovni
sivo
sPrvo
Češka
##metra
južnem
Moč
ozko
Life
Urad
izvodov
klasifika
posluje
jezikovni
uvedla
štipendij
##postelj
##talni
papri
104
folk
##šniki
posvetila
plačilno
privoščimo
smrtnih
prenehanja
##nemato
System
Zdra
##nkov
sevanje
##danega
latek
trdnost
zasnovi
vpisati
opcija
odstopanja
fizioterapev
##vita
svetni
##dent
los
avtori
skokih
sName
prejemati
dostopom
vzbuja
izti
sočlove
mozo
tožen
vajami
stavkov
fotografijah
morebitna
ugotavljanja
jesenskem
rimsko
##JO
##bim
odlok
stranjo
skrbela
operacija
določanju
mentorja
sCena
popularne
demokracija
pošiljko
Švica
samos
strop
podatkovne
prednostne
sedmo
prevajalci
kitajskega
sMogoče
trendom
pošiljk
FF
Klini
##script
##jujemo
ulico
inovativnosti
predšolske
Us
akri
euro
##ževali
##rancev
Kolu
Privo
družili
navajeni
temperatur
priložiti
##sy
##cku
sveč
štetjem
skupnostjo
povezal
ocenjena
davke
parkirnih
ustavila
neobve
Afganistan
preračunanih
body
Razpo
natančna
Življe
individualni
sklicev
Podrobnosti
Fol
naprimer
izmeni
andro
stis
s18
Končni
izvleč
Oku
##dlo
##ničnih
##viljo
objem
žepu
vile
skleniti
načrtovanih
kitajskih
profesorica
Poj
suženj
poškodbi
avtobusi
živčni
blešči
ECB
sKomisija
Ai
BBC
data
##ktiven
dnevom
obramba
odlikujejo
vzpodbudi
tradicionalnega
potencialov
prilagajajo
aktivira
vnovič
DUTB
Kim
##žnejše
veča
tuši
tehta
akro
humor
sorodniki
odpravljanju
Štajerskem
##lišči
štedi
ogledajo
korakom
motivov
raznora
izidom
antioksidantov
sŠtevilo
manifesta
##zbi
kopel
člansko
preizkušnje
porod
organizirati
Kralj
imenovanega
zmogljiv
neodvisnih
Pogoji
izstopajo
ločljivostjo
gozdarstvo
krompirja
najuspešnejših
Ona
##UN
daš
pravnim
storimo
kamnov
dolgoročni
žrtv
neenakosti
ople
##tho
##vis
kašelj
modno
ločiti
opisali
Cankarjevem
Domžalah
keramike
tarča
goljufi
ful
psom
##čec
cenejših
Nekdo
sprejeto
B2
##meji
kajenje
sIgra
zavarovanj
pozabila
načelom
strinjali
negativen
domoljub
Ala
Donal
Inova
##ie
##tav
##ziramo
pokojnino
gasilskih
prejemali
pooblastilo
hvaležna
garniture
##omi
noto
beta
organizirani
učinkuje
precejšnje
prvotni
četrta
občutljivosti
izračunu
vodovod
preobreme
Frančiška
trdega
obljublje
taboru
volne
letnim
sklopov
kolesarjenja
pregledi
Kranjski
suvereno
##68
##neva
izpiše
##rednosti
##meniti
##bula
##vodnja
Litera
direktorjev
ogledom
udejanja
Washington
pše
testov
razpre
##njujemo
sAritmetika
ukvarjala
vozniško
izvenso
pristojnih
Tomaža
izide
kaki
##žim
1959
opazovati
velesla
naglu
kolekcije
Sovjetske
upal
##ndo
detek
Verje
čutimo
Linu
ogrožene
kovinskih
Nacionalnega
zgledu
sZanimivo
vodoodpo
##niškem
osmo
kilometer
italijanska
promocija
priključka
prihajajoče
tko
zru
potrje
hipu
##večih
namensko
oblazi
čakamo
vstopila
odtenke
motivacija
najtežje
krvavitev
haml
Isk
ZPP
##sbour
Tomi
Tečaj
deležem
reklamacije
kristjani
bojo
##ence
dejanji
ognji
##oloških
sodelavca
želodec
University
##64
##tonov
včerajšnji
##INE
zemljevidu
dosegljivi
odvijala
učbenikov
helikopter
celoveče
King
##jeti
##jane
##and
##mag
##stila
##sniki
steča
Leona
poslovo
govornik
vgrajene
LG
VR
##zbe
##hop
lastnino
motijo
s17
škoduje
prisilno
začenjajo
Valva
sprehodili
vseživljenjskega
##nstva
pridelu
kilometri
tekači
Uporabljamo
transakcij
gredi
##Code
postavljeno
##haji
strel
množičnih
sVabimo
esenci
##coin
omogočite
Lenart
1938
trebuha
razstavišču
zavedanja
akumulator
##dkov
svetnika
##vljanje
zadre
zakonska
vključila
Soče
izrazov
sistemske
optično
mlečne
prikazani
krščansko
univerzitetni
Wolf
##23
ličil
minil
Roko
vsoto
##gnal
pooblaščenih
SR
zameri
podstre
revidi
promocijskih
ujel
poguma
Zlo
empi
odprava
Odra
##klope
izdana
športnim
izreka
sl
sel
##dobo
fiska
igrišč
##kanski
treningih
kazenskem
majico
##bonma
razredih
CBD
Sporazu
nagiba
tožnik
končan
karta
presegla
svoboščin
proizvoda
predsedstva
prenehanje
eksplozi
hranjenja
unov
korej
Naroči
vsebinskih
Bavar
počutila
negativni
vpisana
AN
Kristi
opisu
Polo
vrve
ležišč
usode
kreativno
paleta
tekmovalec
Ostali
SRS
##bnosti
prižga
dopis
kinemato
##njenim
gobe
Češke
oblikovalec
poezija
maratona
Pogodba
podpreti
##GI
prozor
Priloge
seznanijo
spremenile
označeni
poroki
podjetniških
sneži
vihar
personali
prenova
področjem
##kazal
sZago
##tirane
premoženjem
rezerve
zamude
Kobarid
podpisni
držala
##dajalci
bratje
bančnega
Večji
goriv
gorske
državnim
inženirjev
navdušili
prehransko
taborišča
narodnoos
razsvetljave
Volkswagen
sse
##tto
##kec
##press
Maru
trakovi
očitna
zbornici
formatu
tehnološkega
Radgoni
sprašujem
uspešnem
dinamiko
lestvico
izposoja
dlak
trenerjev
izletni
##zervi
uporabljenih
Način
##neslo
trave
118
zahtevnejših
načrtovane
nastavitvah
doživljanje
širokopasov
tajnik
prehodno
Sodišča
grobni
Njihove
neprijetno
sprašujete
function
izkaznico
Yo
Kori
tria
nadgradnje
koledarskem
senat
brezposelnost
jubilej
Apo
sodelujete
klasičen
vrednota
zdravem
preglednost
televizijski
odvra
popravil
Celotna
harmonika
zavezanci
sZgodba
izpoved
oblog
Počasi
riž
uveljavil
organizirane
počutimo
zgornjo
naključje
Tekmovanje
Ore
nabora
prired
##stavite
hodila
finančnim
168
sedeže
Južne
##brisa
prodajalcu
##29
##jici
šotor
Domi
izmenje
javnimi
spodbujamo
kemične
nahrani
društvi
inkuba
tedni
oblega
težavnost
odprlo
Pivovar
Putin
postelja
spravili
publici
oltar
##gam
##marke
Poza
akterjev
kritični
sFil
psihoso
štampilj
kriterijih
instrument
ikono
najavi
članske
uniču
neučinkovi
prijetne
možganske
vgrajena
cerkveni
kanala
Potrebujete
sDobro
dž
nar
##dimen
##tnici
zaslužka
verzije
kampanji
gasilske
dragocene
Okto
zajam
razra
midva
čaro
Nami
pričakujem
Biti
usmr
1940
sprejmemo
filozofija
razsežnost
Cerarja
Banka
Umr
##TH
dostavlja
dezin
##bica
##unt
sredino
Janšo
zaščitene
najpogostejše
Misli
izterja
Grčije
prostate
Emo
rednim
tira
loko
vsebinah
začetki
odprtost
Medvode
vzdrževalnih
naročanju
japonski
POS
tedanji
črn
pogledat
pokojninske
poigra
poškodovana
nadzoruje
##klja
kocke
##poti
vetro
krh
normalne
olimpijski
posamično
##stv
##ročnih
##karja
##gradu
##čkami
izvirne
kopalnica
poslanka
zaznamovali
junaka
Arab
amandma
zavla
##stil
upočas
prazne
##vedli
Javna
Sara
udobne
plačilnega
zakonca
Vsakdo
prijateljica
Narava
##zhe
##seda
krasno
##sposablja
travo
Videm
Prosim
takojšnje
grozo
Spodnji
izletov
об
stroge
Latvi
servisu
napeto
razmisliti
LM
spira
##stičnimi
topo
končnim
domačin
sPotre
zaščitna
Produ
nuditi
sladke
oddelkih
dolgega
solze
izpodbijane
sesto
sedanjih
mačk
Kopra
notri
berejo
litra
##rečih
preprosti
formo
##xx
cepljenje
Najem
avtoimu
##chnu
ustanovitelji
parlamentarnih
četrtino
plovil
tv
inzu
vete
novejši
klime
šolami
ogrožena
okrepitev
begunci
razpoložljivost
združitve
mišljenje
podžupan
Clo
##afri
##jeli
##rišče
##kale
##žalov
link
samemu
festivalih
albumu
nenavadnega
##ritas
oškodova
Th
##tivnem
##skar
začetnik
Nekoliko
strateške
sklopa
gorskega
prejemnikov
kopalnici
Fede
tiskovni
naraščajoče
berem
podnebje
veka
upoda
cenejša
vrhom
Ruski
počitniških
ekološkega
februarju
ličila
pomembnejša
zdravijo
pričakovanji
investicijskih
borze
tiskanih
znamenitost
komunalnega
izdelujemo
vegetarija
bode
mirni
pisec
krči
##logy
smeha
povečanega
cerkvenih
kreativnost
zaliv
neuspešno
klimatske
Ukvarja
pripiše
proč
##žic
Prireditev
greh
111
ruska
planine
prejemkov
globalnih
sDelov
teniški
publikacij
hčerki
ugovor
parametrov
Serge
Kovačič
##valen
svetila
preizkušnji
Obisk
družabno
Nacionalni
klavir
Upravnega
opira
zu
##koristi
razgleda
Posta
oblikovalcev
lutka
vplivale
izključuje
mešanih
poslanstva
družabne
uslužbencev
empa
neravnove
leža
metal
##njake
stoletij
glago
pretekle
Trgovi
Citro
slikarja
zavrnili
Ajdovščini
ukinitev
Olimpije
nikakršne
seže
pasje
##gorju
deci
mejne
vidnih
energijske
štirinajst
preizkusil
NIJZ
KL
KUD
napora
registr
zadovoljnih
božič
demokratično
Srednja
neupravičeno
vrtogla
##63
##stor
plavajo
navaden
nakupih
pristojnim
optimizacije
Em
Šlo
konstitu
pravilnega
Industri
fotogra
ruti
izbranim
razvijamo
nivoja
individuali
iztekom
zamrz
Cal
razstavah
igranjem
Preveč
trenutnih
romantično
problematiki
Trum
osebnostne
Scho
##veni
sema
pridom
koren
##poštev
vinje
Nazadnje
Mama
mlajša
predsednikov
sIzo
prvenstvih
izvirni
trgovcev
znižala
zahvaljujem
SNG
ortope
Bren
##zz
##tekmov
drugam
vratar
odprtja
republika
Organizacija
scenari
učnega
##ngu
zaživi
##tional
nož
počastitev
sobote
izvolitev
gozdna
poglejmo
upanju
fronte
##zine
rodbi
##hani
Čebe
Metel
rešitvi
centre
gledalce
torbe
Japonska
obratovanja
tes
vija
##tvenih
odlom
kakšnimi
naraščajo
Ander
1914
uživajte
kriterij
neumnosti
jar
##kovci
valja
##teklo
organizacijsko
plesno
denarni
okrogla
starimi
javnostmi
razglasil
Sredstva
ločljivost
Bratušek
ger
##nacija
##čita
razgrni
##žare
pogoja
igralnih
preseže
popular
prejemnika
neznani
preiskav
##čija
razpozna
povprečen
delil
sKakor
načinih
fakultet
preuredi
četrtini
nepovratnih
konju
enostavnih
hotele
menjavi
katoliški
pomislimo
motivacije
Škofji
srbski
free
Alojz
Bon
tekmovalce
1949
napovedih
motorju
privlačen
Skupnost
ZVOP
Opravi
omembe
sb
kraljica
povezavah
pišemo
razreši
simbolično
božični
kadrovske
Islam
Zreče
semeni
kapu
vital
računi
živilo
##slova
izbirali
slabovi
odporen
diagnozo
##gapu
Zaenkrat
polie
uresničuje
pokojnin
ponosno
uveljavljati
najpogostejša
Dnevni
religio
##pes
1900
Mas
navadna
##čarske
povabljeni
Publi
javnostjo
Šentje
sSistem
nakazujejo
OF
TP
##žur
##leče
##mero
##vić
obhaji
##šiča
povežejo
James
Pač
čutili
idealne
posledicah
brazil
četrte
Zelan
nudili
profili
pomislil
svetilke
ZJN
##bic
razigra
##dobje
Tav
##mercial
##zirala
starostjo
uredila
internetne
odzive
opazoval
državljanstvo
Filozofski
derbi
prodi
predra
romar
soočiti
prekrškov
jabolka
jutranje
Egiptu
Težava
Storitve
zamol
prece
prizi
mik
tempelj
pisanjem
fantom
investitor
nedoseg
okoljski
nogometnih
novinarje
Belgiji
ritmu
Edino
4K
šle
zaveze
vzpored
poročne
pojavljati
produktivnosti
zaprtje
Free
oplo
##ear
##200
doživet
kardina
potrjeno
god
akte
resda
priznanega
zavzame
predlagam
konkretnega
nastopal
Njihovi
Narodni
tržnice
peljal
tkanine
razmisle
abo
##oh
##tv
##cla
##快三
##kop
knjigovo
projektno
kolesih
Lastnik
podaril
drame
Marke
kriteriji
dostojanstvo
SFRJ
inspira
jan
dodiplom
lastništvo
##hranje
petem
rokih
stroka
uničili
nosimo
medicinska
omejiti
Ugotovili
GZ
palico
ang
strokovnimi
krožka
merijo
Obiskov
PRI
nedavnega
Madžarsko
artikle
ŠK
zavet
rudni
klima
neusmi
##tirala
komisij
priljubljenosti
ugotavljamo
kreditno
vrečk
sankcij
jemljete
komponenta
Blago
kislo
pest
Odve
zaključen
intenziv
prikazane
potok
leseni
njun
napitek
podiz
Vgra
##La
pristno
vezan
lotiti
motokro
migracij
sklepati
Balkanu
svetovalka
fenomen
zabojni
##niča
izmisli
odvo
čevlja
peska
dosegu
Marijo
podrobnejše
duševne
komunistične
frizu
##ln
##ata
##JP
ladi
moli
Vega
Prebi
Rock
lastnica
pridelek
kemo
praznično
Cerkno
kadrovskih
spustili
terminu
mladostnike
zasledimo
##TU
##toku
metropo
steber
##tiramo
Letošnji
presoja
Brda
pripadnost
Fride
polnih
##rtvov
univerzo
podaljšanja
vnesite
datoteko
opus
Konjice
nedvoumno
##EU
botani
stavbnih
tveganjem
Forum
vlagatelji
pregledali
prepušča
sladole
SharePoint
Ry
##lli
nana
odhajajo
sprehodu
Občasno
##kazalo
Roka
sČlove
zavetišče
LDS
Rudi
Umetnost
insolven
kodi
##ljski
Naklo
infe
Gotovo
##ill
seksa
sGa
izdati
standardni
bruhanje
klinične
recepti
ogor
##jočem
sKdo
predala
igriščih
Hrvati
Gabri
kopico
040
raznovrstnosti
uravnoteženo
domeno
omo
sedanjega
izdaj
##denja
Poleti
pisana
spremljanju
spodbudo
Filip
potoval
sPreden
absur
rekreacije
nikakršnih
##ranosti
obmor
dečkov
spreob
##plan
preobli
predložitev
zapravlja
##letov
presli
predna
##šano
plana
služa
dovoljenjem
zasluženo
objavljajo
spremenjenih
Zad
Taj
poletna
soglasjem
srednjeevrop
rokavi
sBolj
ponovnega
Rimljani
konflikt
##meten
rečejo
mah
prsta
zvene
urgen
zmanjšana
dokumentih
dihal
trepalnic
##67
zalogo
prerazpo
deter
predmetni
pomagam
Marti
prevodi
razširjene
niha
Janezu
planinskega
SDH
vnesti
obstoječo
koncentri
1869
obdavčitve
izpopolnjevanje
senata
Franceta
videoposnetkov
Spletne
pregona
prvovr
kupe
Tadej
Preddvo
zdravilno
resničnih
Podrav
odločb
naslednjimi
beležijo
Knjige
redkeje
škr
##ast
Voj
skritih
posnetku
bremena
Kozja
bivališča
narodnoosvobodi
obrvi
dehi
razgovor
opremili
težak
Jani
Sašo
uničuje
zavarovalne
zemljišču
planini
dokončanje
platformi
vprašalnik
severnem
Pošta
dejavno
luke
poskusila
posveta
poudari
upoštevala
turnirjev
kolektivni
sofinanciranja
hribih
Žan
Pošte
trenutnega
Petr
uvrščen
znašajo
hitrejša
Svetlo
kraljestvu
3x
prili
##kuren
razpisi
##ščanov
zaznali
letalsko
gotovostjo
Zgodbe
januarjem
žrtvam
zagreb
oc
##neja
Pou
prebiva
sUra
podjetnikom
operi
koalicijo
suhem
kemikalije
Mercator
osrčju
repertoar
evi
##godaj
##zijske
##bach
rešitvah
vladne
energij
stili
tujim
##formacije
pobudnik
živčnega
pedagoško
krajini
ničemer
hormona
poškodbah
BO
Den
Kö
##dič
##bek
nocoj
trdil
plavanja
zida
hriba
Domžal
opredeljeni
kanalizacijo
izogibati
Sky
DC
io
zare
zahoda
##tujem
Zaseb
pomembnimi
##delitev
združevanje
krea
zračne
##karski
videospo
priporočili
Kemi
vrnete
razlogom
zainteresirane
Javascript
##AB
storilec
institucijami
Velikega
vročine
nastopih
Izoli
osebnostno
spremenjene
koroških
osnutka
Liz
##kte
##Opti
pojme
izdan
stalo
Mah
krilo
razvojna
presegel
zrasla
nastopijo
verig
razprši
Turistično
eteričnih
Aero
namak
obžalov
##cena
modna
##rnitev
vodilnega
Predmet
smela
posameznim
ukvarjam
objaviti
Hamil
kompleksnih
otvoritvi
Ani
ms
moril
prodo
ločitve
objavilo
tekočin
neprimer
državama
diaman
dokazala
listino
##tirani
rega
obsežen
polnoči
ZPIZ
dvomim
ME
nata
##seno
Polje
spoznavanja
delila
demokrat
pojasnilo
prenašanje
pridih
kripto
zračno
lepota
pogodbeno
kloba
zadržuje
1930
poravnati
Organizatorji
Prostor
nežna
športih
upravljati
hud
poročeval
sMeni
Državna
dvignili
inovativnost
1951
Prejšnji
oklepa
elite
##FI
##lat
send
razpise
##zijsko
##peto
dobrobit
obiskalo
##centra
podpiramo
vinoro
hočete
tržišče
Zlata
dragoceno
raziskujejo
zaživela
društvih
##rs
##mere
gensko
posnetka
željami
Vzroki
odporni
obsegajo
klepeta
segment
venec
sveča
bliska
učilnici
zadevajo
zobni
zbiranjem
Vzgo
poškodovani
revolucija
destinacijo
razsvetljavo
zavzemajo
detajli
##cko
nočnih
stranišče
zvest
odkrivali
prevelike
pevskega
najmočnejših
tamkajšnje
Instagram
megli
narodnosti
aktivnostjo
obtoženi
razglasila
Bistrice
virusom
##idov
##wal
##druž
poznano
natančni
potencialni
obljube
uspešnice
trebuh
kasnejši
frizer
my
odmeri
trimese
postavitvijo
lepšega
obravnavani
mamice
gluhih
discipline
Balkana
odprtoko
MojaObčina
sogovornik
bombaža
UNESCO
MX
Ox
##sr
tekel
predraču
točen
medkultu
sČu
četrtina
nedostop
##turn
Srbija
Športni
začimbe
prič
organskih
dejanjem
sPodje
sČi
draži
svobodni
izvedeni
predvideni
format
statistika
1936
hrustan
srbenje
sprijazni
Iva
s0
##tenju
##ros
temp
trma
delat
ločen
obveščen
vložena
prevozu
izbir
##ANA
obrniti
odpiranja
častnega
poteza
predstavljata
izkušene
sodelavcem
nedeljski
Upravni
linear
UO
gan
##nčič
##tekli
##strica
Bosne
novele
sPosame
suma
sedenje
okrasi
potniškega
raznolika
sRezulta
podnevi
sestanka
spremljevalec
popisa
informativni
##berku
interesom
boljšem
zaznavanje
Duha
kitaro
kolektivnih
Svetovna
nordi
laboratorij
Naslednje
Turčije
Il
opisi
oddali
jako
##ovani
izhodišč
Znano
opazovanja
virusi
wellness
##tiven
##vit
spodnjo
sezname
ljudskega
zadnjim
izvedela
gumija
nenavadne
Zlati
zasvojenosti
Odvisno
##viru
izžre
Potro
voditeljev
povzpeli
stila
oblačili
standardne
naročnino
razkrivajo
sklepanje
logiki
klinični
Traj
##flo
mito
visi
bodočih
čuda
vsebinski
gibanj
poglej
Pravila
kitajsko
jesenskih
raznolikih
prikažejo
ilustracije
PI
preberi
tesni
latin
membra
ribni
prizadevamo
paketi
umaknil
Funda
Rob
##69
##lida
##tičnimi
prikup
folijo
poslušanju
sPredvsem
izpolnila
poslušalcev
vitamine
povežete
EB
evalva
upe
umor
##ac
selitve
jasli
obsežne
prilagodijo
##harmo
servise
simbolov
Danskem
koalicija
sSaj
zdrži
psihološko
kanalizacije
sprehode
genoci
konzervan
##ssel
##njenimi
##gie
##zona
##delka
Leon
moderna
razmišljamo
kuhinj
Duhov
proizvodi
konstrukcija
neodgovo
##zgodovi
##HL
pobrska
sele
Semi
naravovar
Voja
veselim
gibalno
stanovanjsko
dnevnika
##ORI
poplave
registriran
samooskr
##tas
prazna
neodvisne
pravljico
gospodinjstvu
terapiji
Adam
##ни
design
volan
##hali
prevelika
mišičnih
ljubiteljem
literatura
ogromna
##vsezadnje
Cankar
totalita
CC
odteg
##ments
cooki
izzivom
balkon
pokopali
izpada
naziva
neuradno
Ivo
##kovali
##fit
posest
obvestite
sŽal
železniško
odporne
kosmi
prisluhniti
Lis
soka
pediatri
energiji
Tisto
blagajne
hrbta
župani
nogometna
snovmi
medsebojni
Zgornje
preimenov
Brani
##ри
kardio
roje
sPr
Izredno
združevanja
napor
##fana
##ress
razrešitev
sovraštva
opredeljeno
obrnili
bogatejši
visokošolski
##tch
##VP
##Re
##马会
izvze
objemu
izvršni
znižali
uvajanja
kasnejših
Ogla
##gmati
##fro
##tiran
koča
##ovane
povezanimi
dolgoročnega
##berk
opravičuje
oblikovani
##grafiji
preveli
vrtnar
rokomet
nastopilo
regionalne
podnebne
klepe
presnovo
vpisom
##niz
##seni
šefa
vodna
Pogled
znaka
skupinske
Sea
Možno
##stranski
poznavanja
Tine
sestaviti
Cou
sovražnik
avstrijskih
omenila
prilagajanja
gledalca
turški
sVaše
shujša
KK
verniki
vzvra
plasten
skon
Zemljo
osvojiti
pevskih
komercialnih
ustreznim
Poljane
mobili
podzako
pravilnikom
okoliške
odličnost
##standar
tehničnimi
vsota
naložbo
zaznamujejo
palčni
dosegljiva
čokolado
Ukrajini
##sia
Kopri
članu
lokal
Jutri
ugotovite
Ameriška
zaprto
verigo
Ormož
Oz
##79
##vata
##šola
slikanje
pridružuje
lansi
mariborskega
Naslednja
Milanu
Ogled
##BE
odločen
Vesel
Investi
naravnim
sodobnim
živalim
pridobljena
aerodinami
##enzi
Obr
Dogaja
sČas
##šnici
polk
Begu
hladnih
stripov
Plačilo
živalske
odobri
njuna
anketo
zavarovanih
ustnic
madžarski
tožilca
armatu
Božjega
##ntu
##novar
morsko
prevelik
Koroška
diplomo
izrekel
embalaža
dimenzijo
negotovosti
320
napisom
seki
preci
kade
##dona
sKri
Tema
veljavi
živalski
prepovedanih
pooblaščena
luknji
sank
Vrhniki
##venciji
prioritete
Firefo
talne
piani
sredstvih
poznala
vodenjem
kratkega
Različne
očesom
razumela
spalnici
Uporabljajo
marsikomu
##manjkanje
prednostno
Draga
geometri
deveto
pljuč
elektrarn
polfinalu
Ribnica
##dimenziona
gmo
##中特
daj
##ong
priznan
enostavni
starejšo
oviro
odvetnika
listin
alternativnih
Indije
sStrokov
Spra
ZRS
Št
občutijo
vrstice
Salz
Priporočljivo
##meru
kajenja
topi
##rjenimi
##ranta
pisane
Listi
okusom
dediščini
reading
neodvisna
pridobljeni
najmočnejše
pritegnila
prepoveduje
Festivala
bronasto
Ev
abonma
hranilnih
upoštevanja
odpade
vstopajo
nadstropje
Globo
logotip
Osrednji
oblačilih
##čemu
vej
lipi
polica
naročeno
opravljate
označeno
##finan
Državnem
padli
vezani
štafe
pomnilni
oboroženih
zaznamoval
grozdja
##ograd
cestnih
drva
Mau
sSledi
ameriškim
kemično
potrošnikom
odpotov
škofije
nazorno
##rac
deljenje
##ovat
hujših
zapleteno
kovinsko
čustveni
Kulturno
tematskih
Edvar
imperija
Ada
##vnejši
##rator
jezo
izli
##ovica
##ščo
svetovalcev
predsedniki
spodbuda
##lovalec
odraslim
que
makadam
Npr
izpelje
daru
stebri
veljavnega
klimo
Logar
subti
ohranijo
verigi
izteče
dolgotrajne
britanske
Prešern
depresija
##ат
vek
odlokom
Tatja
aktivnim
sklenitvijo
Maria
sprožijo
orodjem
redka
obroka
proizvodne
Inštitutu
mejnik
##ravne
sZve
sKom
Bojana
ustvarjen
oblikovno
naslednjim
prejemanja
zapušča
zahodnega
odhodkov
vročo
hrbtenico
malenkosti
podvig
plezanja
Furla
DI
##ich
##mež
##bakteri
potrjena
dopolnilno
domačije
potrošnike
izzivih
Colo
Izvi
Tip
ugotovitvah
oddaljenih
kitare
Dobrna
posvečamo
kopalke
Predstavniki
razbrati
nera
laž
vrže
občutimo
trasi
plodov
menimo
pesniško
olajšanje
najnovejša
spremenjen
Vlado
pooblaščenca
##žile
Bogo
strehi
zbrana
prilagojeni
kamno
izziva
nadgradili
njuni
zadolžen
ohranjena
polemi
kompletu
nemara
Kolikor
sedmimi
ročna
šopek
sPozdrav
Sociali
približali
prekliče
peljali
Aplikacija
EL
##stju
Pripravili
strelec
primerjave
stvarmi
koncerte
držimo
povratne
škofje
diskriminacije
oksida
##HF
skupek
Vino
opazijo
povprečjem
kilogram
mehkega
prisilne
latinsko
Valentin
Izkušnje
CSD
prim
trdnih
držalo
##goval
Vil
pripomogel
reference
Šenču
Brgle
tabela
znanimi
Koši
sPrej
štela
##ročnem
zaslužili
strmi
Švicar
##GRA
prestavlja
ležal
organizacijskih
kompen
otrokove
športi
dovolil
sKoliko
čakalnih
Lutkov
razdeljeni
križišča
max
##šnica
podobnim
poslanskih
radijski
nadzornih
voznikom
internetni
ekonomska
Splošna
zavrnila
newyor
ZRC
##vanih
drže
Iztok
koledarja
zavetje
lepot
izdalo
čudežno
širša
Metlika
##bl
##ре
odmr
##snica
celostne
ključen
pisatelji
##klopa
prevoda
avtorju
upada
matično
motornega
Stefan
opazuje
odpravljajo
##kulacijo
vplete
skromno
krvavitve
##zve
doc
##bitev
Mel
infar
krma
sluznice
ustvarjanjem
prispela
poročilom
210
naseljih
vrhove
pripomoglo
glasovanju
omenimo
Severno
Študent
ranjenih
kroglice
##usa
zastavljenih
##metom
pregra
obala
prostitu
športnikom
laseh
Dolenjskem
karakter
Ano
##zeli
avstro
zapos
enakost
sobotah
marsičem
razpisuje
ponovnem
mariborske
Zavedamo
sSvetov
Programa
ambasado
Olim
from
zmeni
##lijem
trda
##fiji
otrokov
uspehom
čistih
predstavljalo
varnostnimi
takojšnjo
predvid
izdano
sŠtudi
množične
uvedba
neverjetne
Japonske
evaku
##Li
roča
nasprotujejo
odpremo
vsakodnevni
priročen
registrirani
2022
želodca
princip
upravičenosti
##fla
pom
žel
loci
enkra
upravljate
okuse
reševalcev
fante
denarnega
kolesarsko
koordinacijo
interpretacijo
najdaljši
praznujemo
Zbor
Špela
moškem
ločene
##tnam
omenjen
prodajali
specialist
navigacijo
Klo
m3
realne
via
##jemna
letalu
kritje
##ung
tekmovalnih
kmetijski
praktičen
Sledila
sinoči
čvrsto
sex
##nsol
najdi
mastno
##pajte
Stane
namizni
montaže
obračunu
razočaranje
kapacitet
vaseh
zavetišča
skupščino
študijah
tekmovalne
nauk
dobrine
pojasnjujejo
najširše
shranjujejo
##lemu
naslika
dodatnim
ozdrav
Noč
prevečkrat
prodajati
usmerjanje
zaliva
sTukaj
Ok
##telu
Jam
kulturnim
Sav
vlad
280
tiskani
reakcij
metafo
dobavitelji
talentov
Izi
LJ
uhaja
nehote
##ktivnega
entite
##ndvajset
tujec
Koroški
kazenski
Jesenicah
prizorišča
naslednik
birokra
##vilo
turo
začetnem
dražbi
hujša
široki
sFe
paramet
samostojnost
kovinske
[...]
